<unk>	0
<s>	0
</s>	0
he	-0
▁t	-1
▁a	-2
▁s	-3
▁w	-4
nd	-5
▁the	-6
ed	-7
▁and	-8
▁to	-9
▁b	-10
in	-11
▁h	-12
▁wa	-13
re	-14
ou	-15
▁f	-16
it	-17
▁T	-18
▁l	-19
▁c	-20
▁d	-21
er	-22
▁he	-23
▁m	-24
▁p	-25
▁was	-26
om	-27
▁o	-28
ay	-29
▁The	-30
ar	-31
is	-32
ing	-33
il	-34
▁g	-35
id	-36
▁S	-37
at	-38
en	-39
▁n	-40
▁sa	-41
▁ha	-42
an	-43
im	-44
or	-45
on	-46
▁it	-47
▁th	-48
▁H	-49
ll	-50
▁"	-51
le	-52
▁her	-53
ot	-54
et	-55
▁She	-56
ir	-57
▁He	-58
▁They	-59
es	-60
▁in	-61
ver	-62
ut	-63
ow	-64
ck	-65
▁L	-66
▁e	-67
▁u	-68
ld	-69
▁y	-70
oo	-71
▁said	-72
ig	-73
ily	-74
▁r	-75
▁be	-76
▁I	-77
am	-78
▁st	-79
ce	-80
ke	-81
▁she	-82
ve	-83
pp	-84
ith	-85
▁with	-86
▁O	-87
▁On	-88
▁on	-89
▁Lily	-90
▁you	-91
▁of	-92
ked	-93
ri	-94
▁so	-95
nt	-96
▁his	-97
▁pl	-98
ad	-99
▁B	-100
very	-101
▁day	-102
▁that	-103
▁up	-104
▁play	-105
▁had	-106
st	-107
▁they	-108
▁we	-109
▁mom	-110
▁M	-111
▁for	-112
el	-113
un	-114
ould	-115
my	-116
▁li	-117
ch	-118
ent	-119
▁happ	-120
▁want	-121
itt	-122
▁sh	-123
out	-124
her	-125
▁do	-126
ly	-127
▁not	-128
ome	-129
se	-130
▁very	-131
ound	-132
end	-133
all	-134
▁wh	-135
ime	-136
ittle	-137
▁k	-138
▁time	-139
▁little	-140
al	-141
▁there	-142
▁A	-143
▁ne	-144
ht	-145
▁re	-146
▁It	-147
▁happy	-148
▁sm	-149
▁big	-150
▁is	-151
▁but	-152
ack	-153
▁an	-154
▁saw	-155
riend	-156
."	-157
▁friend	-158
ry	-159
▁as	-160
ra	-161
ide	-162
▁One	-163
ake	-164
!"	-165
ug	-166
▁Tim	-167
▁loo	-168
ved	-169
ter	-170
▁were	-171
ore	-172
▁Once	-173
▁lo	-174
▁J	-175
ec	-176
▁him	-177
▁too	-178
▁go	-179
▁bo	-180
▁se	-181
irl	-182
▁are	-183
▁j	-184
ard	-185
▁wanted	-186
ill	-187
▁girl	-188
▁upon	-189
▁them	-190
▁out	-191
▁Tom	-192
▁at	-193
ur	-194
ind	-195
▁their	-196
fu	-197
▁sp	-198
▁Ben	-199
way	-200
▁smil	-201
▁did	-202
▁could	-203
hen	-204
▁have	-205
ain	-206
art	-207
▁ex	-208
hed	-209
rom	-210
▁went	-211
▁ar	-212
ic	-213
▁can	-214
▁W	-215
lp	-216
ful	-217
ood	-218
?"	-219
hing	-220
▁friends	-221
▁nam	-222
▁But	-223
ight	-224
▁all	-225
▁help	-226
▁kn	-227
um	-228
one	-229
ark	-230
▁back	-231
▁say	-232
You	-233
▁fun	-234
▁cl	-235
are	-236
▁no	-237
▁le	-238
▁Timmy	-239
op	-240
▁smiled	-241
▁sc	-242
▁named	-243
▁al	-244
oug	-245
▁loved	-246
side	-247
elt	-248
▁man	-249
▁asked	-250
ick	-251
▁toy	-252
▁like	-253
▁fe	-254
▁felt	-255
▁looked	-256
▁some	-257
▁around	-258
▁see	-259
▁me	-260
ame	-261
omet	-262
▁ro	-263
▁br	-264
ure	-265
▁bir	-266
get	-267
ice	-268
▁boy	-269
▁would	-270
▁start	-271
ong	-272
ss	-273
▁bird	-274
▁somet	-275
▁fa	-276
dd	-277
ings	-278
▁ag	-279
▁wor	-280
▁what	-281
▁Mom	-282
ade	-283
▁make	-284
king	-285
,"	-286
ie	-287
own	-288
▁tre	-289
▁ran	-290
gether	-291
▁You	-292
▁away	-293
ag	-294
ared	-295
▁says	-296
▁started	-297
oud	-298
if	-299
▁made	-300
▁car	-301
▁something	-302
▁together	-303
ited	-304
ther	-305
▁park	-306
▁co	-307
▁sad	-308
▁other	-309
▁new	-310
▁E	-311
▁exc	-312
▁put	-313
▁from	-314
▁pr	-315
ell	-316
▁la	-317
▁hug	-318
ble	-319
▁mu	-320
ook	-321
ach	-322
▁again	-323
▁home	-324
▁when	-325
▁F	-326
▁good	-327
hat	-328
ep	-329
▁who	-330
est	-331
ried	-332
▁found	-333
▁fl	-334
▁then	-335
▁ch	-336
▁dec	-337
pped	-338
▁wal	-339
as	-340
▁D	-341
▁get	-342
qu	-343
▁playing	-344
ought	-345
pl	-346
ally	-347
▁sw	-348
▁Su	-349
ous	-350
nn	-351
▁things	-352
▁excited	-353
▁liked	-354
▁got	-355
uck	-356
ro	-357
▁Sam	-358
ided	-359
▁decided	-360
▁bl	-361
ave	-362
▁came	-363
▁every	-364
ara	-365
▁your	-366
ax	-367
▁v	-368
▁scared	-369
▁Ann	-370
ust	-371
▁one	-372
▁dog	-373
▁down	-374
ouse	-375
ny	-376
▁find	-377
▁care	-378
▁bec	-379
ist	-380
▁than	-381
▁feel	-382
ap	-383
▁dad	-384
▁Sara	-385
▁ab	-386
▁my	-387
▁look	-388
▁ke	-389
▁Anna	-390
our	-391
▁will	-392
arn	-393
▁gr	-394
nder	-395
▁Max	-396
▁gra	-397
ways	-398
ess	-399
▁didn	-400
▁po	-401
fe	-402
▁always	-403
▁took	-404
▁about	-405
ant	-406
bb	-407
▁lot	-408
▁mommy	-409
▁toys	-410
▁kne	-411
ers	-412
ise	-413
▁So	-414
▁bu	-415
ite	-416
▁outside	-417
▁tree	-418
▁thought	-419
▁ball	-420
▁more	-421
eci	-422
ened	-423
ched	-424
▁ta	-425
▁old	-426
▁ho	-427
▁learn	-428
ret	-429
▁int	-430
ged	-431
▁When	-432
▁pu	-433
▁know	-434
▁Jo	-435
▁laug	-436
▁take	-437
ecial	-438
▁special	-439
▁sor	-440
▁cat	-441
dden	-442
▁knew	-443
ive	-444
▁Her	-445
ia	-446
▁pe	-447
▁any	-448
ddenly	-449
▁tr	-450
fter	-451
▁how	-452
au	-453
ma	-454
▁show	-455
ink	-456
▁sorry	-457
▁tw	-458
▁much	-459
▁Jack	-460
ish	-461
▁run	-462
and	-463
▁Every	-464
▁hand	-465
▁sl	-466
ven	-467
▁house	-468
▁or	-469
▁op	-470
▁sk	-471
▁mo	-472
▁clo	-473
▁sun	-474
▁into	-475
▁tried	-476
▁inside	-477
ate	-478
▁told	-479
▁water	-480
▁this	-481
▁en	-482
ank	-483
▁if	-484
▁proud	-485
ump	-486
▁qu	-487
▁over	-488
▁couldn	-489
dy	-490
▁gave	-491
▁heard	-492
▁never	-493
by	-494
▁each	-495
ace	-496
▁room	-497
ty	-498
▁expl	-499
here	-500
▁eat	-501
▁Suddenly	-502
▁We	-503
other	-504
ause	-505
▁pick	-506
ion	-507
▁pret	-508
▁played	-509
ge	-510
etter	-511
▁Then	-512
▁just	-513
ak	-514
▁Mia	-515
▁hugged	-516
▁gre	-517
▁off	-518
▁com	-519
▁wat	-520
oth	-521
▁box	-522
▁nice	-523
▁From	-524
ue	-525
▁str	-526
▁because	-527
▁need	-528
▁His	-529
ile	-530
▁many	-531
▁And	-532
▁fo	-533
uc	-534
▁jo	-535
▁bear	-536
▁small	-537
iz	-538
ving	-539
▁long	-540
ine	-541
gry	-542
sed	-543
imal	-544
ort	-545
▁animal	-546
▁sn	-547
ough	-548
▁try	-549
▁unt	-550
ild	-551
sel	-552
urt	-553
▁C	-554
▁until	-555
▁kind	-556
▁learned	-557
▁im	-558
▁â	-559
▁love	-560
▁better	-561
ft	-562
▁flow	-563
▁call	-564
▁don	-565
▁end	-566
▁ad	-567
▁best	-568
vent	-569
Yes	-570
ars	-571
urp	-572
ady	-573
em	-574
ream	-575
aut	-576
urn	-577
▁cle	-578
ves	-579
arden	-580
▁garden	-581
▁fast	-582
▁cu	-583
▁careful	-584
ber	-585
lly	-586
▁beaut	-587
▁even	-588
pt	-589
▁bra	-590
ies	-591
▁thanked	-592
▁fi	-593
▁che	-594
▁laughed	-595
▁sky	-596
▁by	-597
▁jump	-598
▁gl	-599
ase	-600
▁te	-601
▁loud	-602
self	-603
Th	-604
iny	-605
▁way	-606
wn	-607
▁beauti	-608
▁come	-609
lew	-610
▁list	-611
▁wo	-612
▁beautiful	-613
▁hard	-614
▁lots	-615
▁ra	-616
▁still	-617
▁fam	-618
▁animals	-619
▁hurt	-620
▁under	-621
▁P	-622
▁Joh	-623
ect	-624
▁stay	-625
ning	-626
▁let	-627
ct	-628
▁both	-629
sh	-630
hes	-631
be	-632
▁safe	-633
ool	-634
ree	-635
▁col	-636
▁two	-637
▁bad	-638
It	-639
▁book	-640
▁imp	-641
ople	-642
▁rem	-643
ane	-644
▁As	-645
▁lived	-646
kay	-647
ock	-648
ucy	-649
▁walked	-650
ast	-651
▁su	-652
urpr	-653
▁Lucy	-654
▁brave	-655
▁should	-656
▁its	-657
ob	-658
ished	-659
▁angry	-660
▁surpr	-661
▁family	-662
ress	-663
igh	-664
▁people	-665
▁flew	-666
▁called	-667
No	-668
▁red	-669
▁After	-670
▁stor	-671
ip	-672
▁soon	-673
▁fin	-674
Let	-675
led	-676
▁kept	-677
▁fore	-678
fore	-679
▁dan	-680
▁share	-681
▁fly	-682
xt	-683
▁John	-684
ised	-685
▁Mommy	-686
dded	-687
▁pic	-688
▁door	-689
▁going	-690
▁G	-691
▁pretty	-692
▁keep	-693
▁Dad	-694
▁now	-695
▁rock	-696
▁clean	-697
▁dra	-698
ary	-699
▁advent	-700
ummy	-701
▁noise	-702
▁opened	-703
▁shiny	-704
age	-705
▁explore	-706
▁wind	-707
▁doll	-708
▁cry	-709
▁con	-710
▁ide	-711
▁before	-712
ied	-713
illy	-714
▁real	-715
▁sto	-716
so	-717
What	-718
▁ground	-719
▁also	-720
les	-721
▁turn	-722
TM	-723
▁ey	-724
▁far	-725
▁idea	-726
▁fr	-727
▁Sp	-728
▁nodded	-729
▁color	-730
▁war	-731
▁feeling	-732
▁un	-733
▁picked	-734
imb	-735
oy	-736
th	-737
▁next	-738
▁walking	-739
thing	-740
▁Bob	-741
ture	-742
▁climb	-743
▁has	-744
▁ma	-745
▁thr	-746
▁while	-747
eet	-748
▁bed	-749
▁adventure	-750
▁smile	-751
kes	-752
That	-753
aybe	-754
iced	-755
ger	-756
Thank	-757
ious	-758
▁being	-759
▁dif	-760
▁wr	-761
▁clos	-762
▁food	-763
joy	-764
ted	-765
▁give	-766
▁picture	-767
▁N	-768
▁think	-769
▁looking	-770
▁del	-771
ff	-772
ac	-773
▁truck	-774
▁wait	-775
▁eyes	-776
ught	-777
▁tow	-778
ting	-779
▁repl	-780
▁bro	-781
▁stopped	-782
▁listen	-783
▁after	-784
▁R	-785
▁bre	-786
▁own	-787
▁vo	-788
▁walk	-789
ember	-790
▁wonder	-791
▁great	-792
▁Spot	-793
▁hands	-794
▁shout	-795
▁head	-796
▁enjoy	-797
▁import	-798
▁flowers	-799
▁ever	-800
▁Sue	-801
▁noticed	-802
▁blue	-803
▁forest	-804
bbit	-805
ized	-806
▁app	-807
irst	-808
▁near	-809
▁quick	-810
▁dis	-811
▁de	-812
able	-813
▁important	-814
▁remember	-815
▁fish	-816
llow	-817
▁sound	-818
oon	-819
▁slide	-820
▁us	-821
maz	-822
▁replied	-823
▁amaz	-824
▁ac	-825
lease	-826
▁work	-827
▁watch	-828
▁rain	-829
▁showed	-830
▁rabbit	-831
▁okay	-832
gan	-833
▁tal	-834
bye	-835
fere	-836
bbed	-837
▁ask	-838
▁ru	-839
▁differe	-840
▁mean	-841
▁Sarah	-842
▁right	-843
▁tou	-844
▁ye	-845
day	-846
▁watched	-847
▁bright	-848
▁follow	-849
▁everyone	-850
▁strong	-851
We	-852
▁squ	-853
▁stick	-854
▁use	-855
▁been	-856
▁mor	-857
▁voice	-858
▁tra	-859
ered	-860
▁quickly	-861
ath	-862
▁our	-863
▁where	-864
▁yell	-865
▁Jane	-866
▁different	-867
▁child	-868
▁curi	-869
▁boat	-870
ng	-871
▁sure	-872
▁became	-873
▁goodbye	-874
▁face	-875
▁place	-876
ange	-877
▁hop	-878
▁Th	-879
▁high	-880
▁am	-881
Look	-882
aught	-883
▁closer	-884
▁store	-885
▁warm	-886
▁does	-887
▁cr	-888
▁dress	-889
unny	-890
▁curious	-891
▁mag	-892
ila	-893
▁Joe	-894
▁cook	-895
▁bel	-896
▁forg	-897
▁tell	-898
▁fav	-899
ndma	-900
ass	-901
ount	-902
co	-903
▁three	-904
leep	-905
▁night	-906
▁open	-907
▁cake	-908
more	-909
▁here	-910
▁anymore	-911
▁block	-912
▁Lila	-913
▁first	-914
itc	-915
ull	-916
▁pull	-917
iss	-918
ached	-919
ired	-920
▁butter	-921
▁z	-922
imes	-923
orn	-924
▁sweet	-925
▁pain	-926
▁kid	-927
▁grabbed	-928
Can	-929
▁In	-930
isy	-931
▁only	-932
▁mon	-933
▁lea	-934
▁fell	-935
▁ba	-936
▁cont	-937
▁Everyone	-938
▁birds	-939
▁jumped	-940
▁glad	-941
▁bit	-942
▁sand	-943
itchen	-944
▁kitchen	-945
▁That	-946
▁helped	-947
▁sees	-948
▁fire	-949
▁per	-950
▁flo	-951
▁stop	-952
▁happened	-953
▁sing	-954
▁grass	-955
▁bunny	-956
▁shouted	-957
▁story	-958
▁Let	-959
▁tri	-960
nts	-961
▁dr	-962
air	-963
▁Do	-964
▁reached	-965
ppy	-966
▁beh	-967
▁realized	-968
▁yummy	-969
▁brother	-970
Mom	-971
▁lady	-972
▁Tommy	-973
▁mum	-974
ey	-975
▁having	-976
▁prin	-977
ins	-978
▁favor	-979
▁mess	-980
▁favorite	-981
▁draw	-982
▁cre	-983
▁rest	-984
▁through	-985
▁game	-986
▁hat	-987
▁ate	-988
▁less	-989
▁underst	-990
akes	-991
▁soft	-992
▁pare	-993
zy	-994
▁thing	-995
▁really	-996
ather	-997
▁ready	-998
▁began	-999
where	-1000
▁pretend	-1001
▁Can	-1002
▁world	-1003
▁looks	-1004
ken	-1005
▁himself	-1006
▁magic	-1007
fully	-1008
▁pap	-1009
▁done	-1010
▁butterf	-1011
▁making	-1012
▁cut	-1013
▁coming	-1014
ater	-1015
▁duck	-1016
▁pond	-1017
▁kids	-1018
▁waved	-1019
▁why	-1020
▁prom	-1021
▁tired	-1022
▁fro	-1023
▁fix	-1024
ster	-1025
▁mouse	-1026
▁worry	-1027
olly	-1028
▁part	-1029
▁cars	-1030
▁ste	-1031
▁delic	-1032
▁name	-1033
▁flower	-1034
ign	-1035
▁Fin	-1036
▁fill	-1037
Wow	-1038
aisy	-1039
▁touch	-1040
eddy	-1041
▁funny	-1042
▁catch	-1043
bo	-1044
▁used	-1045
▁Sally	-1046
▁seen	-1047
▁hair	-1048
▁tast	-1049
ient	-1050
▁top	-1051
▁parents	-1052
rel	-1053
▁another	-1054
▁hold	-1055
▁hopped	-1056
▁cried	-1057
iver	-1058
oney	-1059
mer	-1060
▁doing	-1061
▁cool	-1062
▁blocks	-1063
".	-1064
▁surprise	-1065
▁light	-1066
hy	-1067
▁green	-1068
▁thank	-1069
▁lesson	-1070
ation	-1071
▁read	-1072
▁floor	-1073
▁din	-1074
▁gi	-1075
▁wood	-1076
▁dri	-1077
Don	-1078
ards	-1079
▁full	-1080
▁trees	-1081
▁running	-1082
▁window	-1083
▁worked	-1084
▁years	-1085
▁cra	-1086
▁-	-1087
▁dro	-1088
▁dark	-1089
▁behind	-1090
▁likes	-1091
▁smell	-1092
▁spot	-1093
▁wished	-1094
▁paper	-1095
ued	-1096
▁yellow	-1097
andy	-1098
▁bow	-1099
ren	-1100
▁swim	-1101
▁happily	-1102
▁bag	-1103
▁sat	-1104
ul	-1105
▁sho	-1106
▁sleep	-1107
aring	-1108
▁Daisy	-1109
▁surprised	-1110
ely	-1111
us	-1112
▁Em	-1113
▁frog	-1114
▁butterfly	-1115
ike	-1116
▁swing	-1117
▁set	-1118
▁carefully	-1119
TMs	-1120
▁slow	-1121
▁remembered	-1122
▁Jim	-1123
▁lost	-1124
▁Benny	-1125
▁cold	-1126
▁held	-1127
uff	-1128
ello	-1129
Hello	-1130
▁hole	-1131
▁ice	-1132
▁laugh	-1133
rew	-1134
▁K	-1135
▁At	-1136
▁needed	-1137
▁buy	-1138
▁perf	-1139
▁left	-1140
ons	-1141
▁move	-1142
reed	-1143
cess	-1144
▁anything	-1145
▁dream	-1146
▁tall	-1147
▁enjoyed	-1148
▁wrong	-1149
▁Billy	-1150
▁arri	-1151
▁hear	-1152
▁Now	-1153
▁fair	-1154
▁air	-1155
▁followed	-1156
▁There	-1157
▁Finally	-1158
▁books	-1159
ross	-1160
▁el	-1161
▁To	-1162
▁children	-1163
▁bus	-1164
▁hun	-1165
▁delicious	-1166
▁table	-1167
▁Gra	-1168
▁finished	-1169
▁contin	-1170
▁friendly	-1171
▁dir	-1172
▁hot	-1173
▁snow	-1174
▁Molly	-1175
▁herself	-1176
ds	-1177
lf	-1178
▁hill	-1179
ens	-1180
▁understand	-1181
▁please	-1182
▁close	-1183
ined	-1184
▁Amy	-1185
▁hid	-1186
sp	-1187
▁arrived	-1188
▁cast	-1189
▁else	-1190
▁arm	-1191
▁baby	-1192
▁wonderful	-1193
▁might	-1194
▁gent	-1195
▁tight	-1196
▁forgot	-1197
ield	-1198
▁bug	-1199
▁colors	-1200
▁rel	-1201
▁build	-1202
▁broken	-1203
▁able	-1204
▁gone	-1205
av	-1206
ner	-1207
▁yes	-1208
▁Jen	-1209
atter	-1210
▁song	-1211
ich	-1212
▁wall	-1213
▁squir	-1214
▁filled	-1215
▁agreed	-1216
▁someone	-1217
▁gu	-1218
▁continued	-1219
room	-1220
▁creat	-1221
asure	-1222
▁count	-1223
▁wants	-1224
▁squirrel	-1225
▁pink	-1226
▁leaves	-1227
ask	-1228
▁This	-1229
▁enough	-1230
▁lion	-1231
ama	-1232
ee	-1233
▁morning	-1234
▁vis	-1235
▁moment	-1236
▁finally	-1237
▁getting	-1238
▁stayed	-1239
▁cookies	-1240
▁break	-1241
shed	-1242
app	-1243
▁poin	-1244
ance	-1245
▁beach	-1246
▁Maybe	-1247
▁few	-1248
▁scary	-1249
▁fight	-1250
▁sometimes	-1251
row	-1252
ash	-1253
ries	-1254
ced	-1255
red	-1256
▁What	-1257
▁turned	-1258
▁hungry	-1259
▁fall	-1260
▁dinner	-1261
gon	-1262
▁mother	-1263
▁grandma	-1264
▁ju	-1265
▁wet	-1266
▁amazing	-1267
apped	-1268
▁trying	-1269
▁cream	-1270
▁daddy	-1271
▁perfect	-1272
▁pi	-1273
▁makes	-1274
▁castle	-1275
▁others	-1276
▁climbed	-1277
key	-1278
oup	-1279
▁pictures	-1280
icy	-1281
▁comp	-1282
amp	-1283
▁talk	-1284
▁met	-1285
▁mus	-1286
ere	-1287
▁white	-1288
oom	-1289
▁listened	-1290
▁smiles	-1291
man	-1292
▁fur	-1293
▁balloon	-1294
▁clot	-1295
oring	-1296
▁alone	-1297
▁Jill	-1298
▁clothes	-1299
▁pol	-1300
lc	-1301
▁tail	-1302
▁joy	-1303
ated	-1304
rot	-1305
▁puppy	-1306
▁spl	-1307
ence	-1308
▁mar	-1309
▁wasn	-1310
▁brought	-1311
▁deep	-1312
▁everything	-1313
▁pet	-1314
▁sear	-1315
Oh	-1316
▁strange	-1317
ister	-1318
ctor	-1319
▁spark	-1320
der	-1321
▁sit	-1322
▁woods	-1323
▁grow	-1324
▁pulled	-1325
ling	-1326
▁sail	-1327
ott	-1328
▁won	-1329
▁plan	-1330
▁ride	-1331
eter	-1332
▁asks	-1333
▁fox	-1334
▁pie	-1335
▁danger	-1336
▁treat	-1337
uffy	-1338
▁roll	-1339
▁visit	-1340
▁leave	-1341
os	-1342
med	-1343
▁pat	-1344
ucky	-1345
This	-1346
▁music	-1347
▁amazed	-1348
▁waited	-1349
▁Soon	-1350
▁teddy	-1351
▁hide	-1352
me	-1353
But	-1354
ang	-1355
ever	-1356
▁towards	-1357
ower	-1358
▁field	-1359
▁land	-1360
▁pre	-1361
▁flying	-1362
zz	-1363
▁All	-1364
▁pen	-1365
▁silly	-1366
▁runs	-1367
▁shared	-1368
ained	-1369
▁owner	-1370
▁cloud	-1371
ape	-1372
▁living	-1373
ugg	-1374
▁Daddy	-1375
▁qui	-1376
ames	-1377
▁job	-1378
▁promised	-1379
▁belie	-1380
igg	-1381
▁moral	-1382
▁side	-1383
gs	-1384
orm	-1385
ol	-1386
▁lake	-1387
▁thinks	-1388
▁Mama	-1389
cket	-1390
Maybe	-1391
ope	-1392
▁paint	-1393
▁sec	-1394
thy	-1395
▁sister	-1396
▁Mary	-1397
ually	-1398
▁party	-1399
▁quiet	-1400
ises	-1401
Okay	-1402
▁must	-1403
cle	-1404
▁race	-1405
avy	-1406
▁wear	-1407
▁money	-1408
sw	-1409
▁worried	-1410
ased	-1411
▁answ	-1412
unch	-1413
▁slowly	-1414
▁pot	-1415
eces	-1416
▁colorful	-1417
▁faster	-1418
▁grate	-1419
▁ow	-1420
▁dance	-1421
▁pieces	-1422
▁bran	-1423
▁bott	-1424
▁welc	-1425
▁broke	-1426
▁cup	-1427
ix	-1428
▁grateful	-1429
▁gif	-1430
▁such	-1431
▁bigger	-1432
ze	-1433
▁train	-1434
ph	-1435
fort	-1436
▁snack	-1437
▁cho	-1438
▁Fl	-1439
▁reach	-1440
▁Mr	-1441
▁blank	-1442
▁monster	-1443
▁pro	-1444
▁plant	-1445
▁join	-1446
▁river	-1447
▁black	-1448
less	-1449
▁win	-1450
▁candy	-1451
ire	-1452
▁blanket	-1453
▁scream	-1454
uit	-1455
▁treasure	-1456
ear	-1457
▁magical	-1458
▁ve	-1459
▁princess	-1460
▁ele	-1461
▁smart	-1462
▁stu	-1463
▁bike	-1464
▁dangerous	-1465
▁Just	-1466
▁sign	-1467
▁dragon	-1468
OK	-1469
▁across	-1470
▁monkey	-1471
▁bar	-1472
▁most	-1473
▁everywhere	-1474
▁helping	-1475
▁nap	-1476
▁farmer	-1477
outh	-1478
▁em	-1479
▁mouth	-1480
Why	-1481
set	-1482
▁disapp	-1483
▁Jimmy	-1484
▁pa	-1485
▁words	-1486
▁je	-1487
ipped	-1488
Sure	-1489
▁stre	-1490
ored	-1491
▁tower	-1492
ming	-1493
eared	-1494
▁threw	-1495
Hi	-1496
▁stepped	-1497
▁heavy	-1498
▁dolls	-1499
▁pass	-1500
▁bite	-1501
de	-1502
▁bowl	-1503
▁dirty	-1504
▁twins	-1505
▁same	-1506
▁crying	-1507
▁bee	-1508
▁spr	-1509
TMt	-1510
▁doctor	-1511
ident	-1512
▁Grandma	-1513
▁acc	-1514
▁believe	-1515
▁wouldn	-1516
▁bath	-1517
Mommy	-1518
▁heal	-1519
chool	-1520
▁hig	-1521
bble	-1522
▁closed	-1523
▁carrot	-1524
▁Mum	-1525
▁heart	-1526
▁stuck	-1527
cked	-1528
▁cour	-1529
The	-1530
▁buck	-1531
▁fruit	-1532
▁min	-1533
▁att	-1534
▁teac	-1535
▁school	-1536
▁brown	-1537
▁hoped	-1538
asket	-1539
iting	-1540
▁suddenly	-1541
▁basket	-1542
▁feels	-1543
▁mix	-1544
▁Emma	-1545
▁chair	-1546
▁eating	-1547
▁town	-1548
▁course	-1549
▁cray	-1550
▁clapped	-1551
▁coll	-1552
▁gentle	-1553
▁fairy	-1554
pping	-1555
▁butt	-1556
▁pack	-1557
ventually	-1558
▁stand	-1559
ier	-1560
▁drove	-1561
ors	-1562
▁pushed	-1563
br	-1564
issed	-1565
▁welcome	-1566
ts	-1567
▁swings	-1568
▁without	-1569
▁Inside	-1570
▁higher	-1571
▁today	-1572
▁neigh	-1573
▁pocket	-1574
orrow	-1575
▁hit	-1576
▁teacher	-1577
▁neighb	-1578
▁pers	-1579
ord	-1580
▁smo	-1581
▁games	-1582
ourn	-1583
▁piece	-1584
ract	-1585
▁cheered	-1586
▁wings	-1587
▁forget	-1588
▁ben	-1589
▁explained	-1590
▁journ	-1591
▁yard	-1592
▁longer	-1593
▁free	-1594
ible	-1595
▁corn	-1596
▁accident	-1597
ead	-1598
ho	-1599
▁dry	-1600
▁along	-1601
umb	-1602
ment	-1603
▁Their	-1604
cy	-1605
▁noises	-1606
itting	-1607
▁neck	-1608
▁sang	-1609
▁inst	-1610
▁late	-1611
▁happen	-1612
▁throw	-1613
▁hugs	-1614
▁young	-1615
▁turns	-1616
▁stories	-1617
vel	-1618
▁shoes	-1619
phant	-1620
▁lon	-1621
▁miss	-1622
▁adventures	-1623
▁singing	-1624
▁trou	-1625
▁well	-1626
▁sea	-1627
▁lunch	-1628
▁apple	-1629
▁upset	-1630
▁lonely	-1631
▁key	-1632
ches	-1633
▁belong	-1634
bby	-1635
oun	-1636
▁dist	-1637
▁secret	-1638
▁street	-1639
▁plac	-1640
▁elephant	-1641
▁tom	-1642
▁wish	-1643
▁fence	-1644
▁mine	-1645
ountain	-1646
▁mat	-1647
ek	-1648
▁shap	-1649
▁shook	-1650
▁exploring	-1651
▁moved	-1652
▁purp	-1653
▁year	-1654
aughty	-1655
▁nearby	-1656
▁naughty	-1657
▁star	-1658
▁soup	-1659
▁shop	-1660
▁wise	-1661
▁Sammy	-1662
▁stars	-1663
▁owl	-1664
▁bring	-1665
fused	-1666
▁jar	-1667
bow	-1668
ocked	-1669
▁Fluffy	-1670
▁inv	-1671
▁exp	-1672
▁Tw	-1673
yard	-1674
▁whe	-1675
▁caught	-1676
ward	-1677
Do	-1678
▁backyard	-1679
▁seemed	-1680
ail	-1681
▁es	-1682
▁relie	-1683
▁dropped	-1684
▁ph	-1685
▁rocks	-1686
aughter	-1687
llo	-1688
▁3	-1689
▁drink	-1690
▁bucket	-1691
▁des	-1692
adow	-1693
ces	-1694
▁purple	-1695
▁swam	-1696
▁farm	-1697
▁resp	-1698
▁Thank	-1699
▁taking	-1700
▁mail	-1701
▁orange	-1702
▁though	-1703
ions	-1704
sy	-1705
▁shapes	-1706
▁past	-1707
col	-1708
▁cow	-1709
▁woke	-1710
▁bench	-1711
▁sounds	-1712
▁af	-1713
ung	-1714
ity	-1715
▁wondered	-1716
▁busy	-1717
▁fit	-1718
▁tiny	-1719
▁ob	-1720
▁Later	-1721
▁nose	-1722
▁sitting	-1723
▁nest	-1724
▁rainbow	-1725
▁daughter	-1726
ese	-1727
▁takes	-1728
▁mark	-1729
▁mad	-1730
fish	-1731
▁cou	-1732
▁kite	-1733
to	-1734
read	-1735
▁holding	-1736
Lily	-1737
▁comes	-1738
▁juice	-1739
▁arms	-1740
thday	-1741
▁nothing	-1742
▁pig	-1743
og	-1744
▁coat	-1745
ining	-1746
▁cir	-1747
▁With	-1748
▁branch	-1749
raid	-1750
▁relieved	-1751
pper	-1752
▁afraid	-1753
▁Ell	-1754
cing	-1755
ose	-1756
idge	-1757
▁driver	-1758
▁mil	-1759
▁forever	-1760
▁Al	-1761
vered	-1762
▁spoon	-1763
▁cute	-1764
▁carry	-1765
▁gift	-1766
▁sick	-1767
▁boun	-1768
ale	-1769
▁lift	-1770
sting	-1771
▁peace	-1772
▁promise	-1773
Of	-1774
ours	-1775
▁huge	-1776
▁act	-1777
▁touched	-1778
▁Jenny	-1779
▁patient	-1780
unt	-1781
▁king	-1782
▁round	-1783
cer	-1784
sc	-1785
▁hello	-1786
▁Come	-1787
▁birthday	-1788
▁fing	-1789
▁letter	-1790
▁grab	-1791
▁intere	-1792
▁exciting	-1793
let	-1794
▁sunny	-1795
▁cheese	-1796
▁Tweet	-1797
eth	-1798
▁onto	-1799
▁bush	-1800
▁laughing	-1801
▁days	-1802
board	-1803
▁journey	-1804
▁gigg	-1805
▁band	-1806
▁creature	-1807
▁disco	-1808
▁Wh	-1809
ittens	-1810
▁bread	-1811
Hey	-1812
arp	-1813
▁ret	-1814
ped	-1815
▁imag	-1816
shine	-1817
▁life	-1818
▁kick	-1819
gged	-1820
▁hope	-1821
▁power	-1822
▁craw	-1823
▁shell	-1824
▁cozy	-1825
▁swimming	-1826
▁inc	-1827
▁bottle	-1828
▁mist	-1829
▁sharp	-1830
▁Emily	-1831
▁wra	-1832
▁suc	-1833
▁comfort	-1834
gg	-1835
ness	-1836
▁instead	-1837
▁whist	-1838
▁milk	-1839
▁watching	-1840
▁return	-1841
▁ear	-1842
▁spin	-1843
alm	-1844
▁accidentally	-1845
▁eas	-1846
▁sunshine	-1847
ten	-1848
▁cave	-1849
pa	-1850
▁Ch	-1851
▁spo	-1852
▁puts	-1853
▁lucky	-1854
▁talked	-1855
▁pointed	-1856
▁honey	-1857
▁pudd	-1858
▁gives	-1859
▁collect	-1860
▁gather	-1861
itch	-1862
▁road	-1863
▁ent	-1864
▁smiling	-1865
▁bought	-1866
▁anyone	-1867
▁hor	-1868
▁searched	-1869
▁later	-1870
▁ce	-1871
▁fan	-1872
▁sandw	-1873
ball	-1874
round	-1875
itten	-1876
▁apples	-1877
els	-1878
blem	-1879
irt	-1880
▁problem	-1881
▁meet	-1882
ize	-1883
▁mach	-1884
▁wom	-1885
▁loves	-1886
▁interesting	-1887
œI	-1888
Good	-1889
▁woman	-1890
▁plane	-1891
▁kiss	-1892
▁pres	-1893
▁healthy	-1894
eb	-1895
▁pile	-1896
▁tasty	-1897
▁ducks	-1898
▁vill	-1899
▁wide	-1900
ove	-1901
ont	-1902
amed	-1903
ub	-1904
aur	-1905
▁adm	-1906
▁eag	-1907
▁spid	-1908
▁clever	-1909
▁crayons	-1910
▁prot	-1911
▁matter	-1912
▁trouble	-1913
erly	-1914
ndpa	-1915
▁zoom	-1916
▁clouds	-1917
owed	-1918
▁storm	-1919
▁person	-1920
▁path	-1921
cks	-1922
▁pill	-1923
▁feather	-1924
▁rope	-1925
▁pop	-1926
▁shining	-1927
▁protect	-1928
▁smelled	-1929
▁front	-1930
▁hon	-1931
▁button	-1932
▁How	-1933
▁pract	-1934
▁spotted	-1935
▁screamed	-1936
▁zoo	-1937
▁minut	-1938
▁present	-1939
▁Jake	-1940
Come	-1941
▁ap	-1942
▁mud	-1943
▁val	-1944
▁respect	-1945
▁Somet	-1946
▁saf	-1947
▁danced	-1948
▁cheer	-1949
▁organ	-1950
▁par	-1951
▁quest	-1952
ond	-1953
▁appeared	-1954
▁which	-1955
▁puzz	-1956
▁seat	-1957
▁teach	-1958
▁myster	-1959
▁snowman	-1960
isa	-1961
▁snake	-1962
▁thin	-1963
▁St	-1964
ert	-1965
▁wild	-1966
▁asleep	-1967
▁lovely	-1968
▁sur	-1969
▁answer	-1970
epend	-1971
▁Together	-1972
▁wearing	-1973
▁Mittens	-1974
▁gently	-1975
▁neighbor	-1976
oose	-1977
▁bark	-1978
▁horse	-1979
▁giant	-1980
▁places	-1981
▁goes	-1982
▁Re	-1983
▁whole	-1984
▁search	-1985
▁splas	-1986
up	-1987
▁corner	-1988
▁impress	-1989
ular	-1990
▁dirt	-1991
▁med	-1992
▁shr	-1993
een	-1994
▁tries	-1995
▁Lisa	-1996
▁trip	-1997
▁confused	-1998
▁live	-1999
▁mind	-2000
▁di	-2001
ato	-2002
▁rolled	-2003
▁card	-2004
▁slid	-2005
▁tasted	-2006
nic	-2007
cean	-2008
▁Le	-2009
▁ash	-2010
▁ocean	-2011
▁supp	-2012
▁forgive	-2013
▁picnic	-2014
▁Go	-2015
▁ca	-2016
▁rude	-2017
▁machine	-2018
▁spent	-2019
▁drive	-2020
▁teeth	-2021
▁ser	-2022
ssed	-2023
itty	-2024
▁phone	-2025
▁oven	-2026
▁pan	-2027
▁pour	-2028
▁last	-2029
la	-2030
▁calm	-2031
▁pretended	-2032
▁delight	-2033
▁cookie	-2034
▁furry	-2035
▁spider	-2036
▁feet	-2037
izz	-2038
▁faces	-2039
unk	-2040
▁lay	-2041
▁worm	-2042
▁ring	-2043
▁rec	-2044
umber	-2045
▁Be	-2046
▁helpful	-2047
▁lad	-2048
▁Peter	-2049
▁eventually	-2050
▁wip	-2051
▁chick	-2052
▁wave	-2053
▁mountain	-2054
▁sal	-2055
▁ban	-2056
▁emb	-2057
▁talking	-2058
▁rob	-2059
ones	-2060
Tom	-2061
▁fold	-2062
▁shy	-2063
▁cart	-2064
▁tomorrow	-2065
▁sel	-2066
▁chocol	-2067
▁tid	-2068
▁spread	-2069
▁village	-2070
arge	-2071
ife	-2072
▁remind	-2073
▁ign	-2074
▁bubble	-2075
▁tun	-2076
▁coin	-2077
▁foot	-2078
▁couch	-2079
▁write	-2080
▁push	-2081
▁ladder	-2082
▁building	-2083
▁fighting	-2084
▁smooth	-2085
▁Sometimes	-2086
▁Little	-2087
▁treats	-2088
▁wore	-2089
▁chased	-2090
▁tool	-2091
ighed	-2092
▁blew	-2093
▁stret	-2094
lex	-2095
arra	-2096
▁bugs	-2097
per	-2098
▁embarra	-2099
▁hiding	-2100
▁pool	-2101
▁'	-2102
▁cross	-2103
My	-2104
▁waiting	-2105
oph	-2106
▁knee	-2107
▁robot	-2108
▁neckl	-2109
▁step	-2110
▁Teddy	-2111
▁puddle	-2112
mo	-2113
▁finish	-2114
▁shelf	-2115
▁bell	-2116
▁coo	-2117
not	-2118
als	-2119
▁songs	-2120
▁stir	-2121
ator	-2122
▁whenever	-2123
▁selfish	-2124
▁ant	-2125
▁maybe	-2126
▁Mummy	-2127
▁cannot	-2128
▁string	-2129
▁stra	-2130
▁Sus	-2131
▁chocolate	-2132
▁Everywhere	-2133
ult	-2134
▁sol	-2135
▁taste	-2136
▁spe	-2137
▁rep	-2138
▁hum	-2139
▁ple	-2140
▁large	-2141
▁paw	-2142
▁net	-2143
box	-2144
▁sack	-2145
▁leaf	-2146
▁scar	-2147
▁fixed	-2148
lebr	-2149
▁barked	-2150
▁tidy	-2151
umpy	-2152
▁banan	-2153
▁wash	-2154
▁spray	-2155
▁stone	-2156
▁Bu	-2157
▁celebr	-2158
old	-2159
▁gen	-2160
▁cloth	-2161
Please	-2162
▁crab	-2163
▁peaceful	-2164
▁colour	-2165
▁Johnn	-2166
ungle	-2167
▁Please	-2168
oin	-2169
▁hel	-2170
ush	-2171
ird	-2172
▁missed	-2173
▁deter	-2174
▁jungle	-2175
iger	-2176
arm	-2177
St	-2178
▁landed	-2179
▁determ	-2180
▁forward	-2181
▁Johnny	-2182
▁embarrassed	-2183
▁Some	-2184
▁necklace	-2185
▁honest	-2186
▁jumping	-2187
airs	-2188
elly	-2189
▁bat	-2190
▁decor	-2191
▁Alice	-2192
dge	-2193
▁trust	-2194
▁hears	-2195
▁moon	-2196
orry	-2197
▁sticks	-2198
▁TV	-2199
▁shirt	-2200
▁creative	-2201
▁sharing	-2202
aking	-2203
most	-2204
▁tea	-2205
▁knocked	-2206
▁disappoin	-2207
▁carrots	-2208
▁success	-2209
▁Don	-2210
▁meadow	-2211
ying	-2212
▁Even	-2213
getable	-2214
▁whis	-2215
▁stood	-2216
▁gener	-2217
▁vegetable	-2218
▁While	-2219
▁bal	-2220
▁meant	-2221
▁legs	-2222
▁tightly	-2223
▁breath	-2224
▁plate	-2225
▁almost	-2226
▁ashamed	-2227
ned	-2228
▁Z	-2229
▁emp	-2230
▁sour	-2231
▁gray	-2232
dle	-2233
▁grew	-2234
▁tells	-2235
▁empty	-2236
▁pillow	-2237
ground	-2238
▁Bo	-2239
ony	-2240
▁gas	-2241
▁splash	-2242
▁whistle	-2243
ian	-2244
▁understood	-2245
▁sheep	-2246
▁ber	-2247
▁carried	-2248
den	-2249
▁yelled	-2250
▁Why	-2251
▁lem	-2252
ustr	-2253
arl	-2254
▁nods	-2255
vous	-2256
▁save	-2257
▁police	-2258
▁disappointed	-2259
▁snacks	-2260
▁hours	-2261
▁nut	-2262
ital	-2263
▁jew	-2264
▁these	-2265
hin	-2266
ork	-2267
▁hosp	-2268
ets	-2269
▁sparkly	-2270
▁gold	-2271
Where	-2272
erp	-2273
▁hospital	-2274
▁kitten	-2275
▁ship	-2276
▁pay	-2277
ina	-2278
▁bored	-2279
urse	-2280
▁line	-2281
▁generous	-2282
▁frustr	-2283
▁test	-2284
▁hidden	-2285
▁Leo	-2286
▁taught	-2287
▁standing	-2288
▁rad	-2289
▁scarf	-2290
iff	-2291
▁chew	-2292
▁returned	-2293
▁minutes	-2294
▁pizz	-2295
▁knowing	-2296
▁group	-2297
▁hur	-2298
▁plants	-2299
▁easy	-2300
▁blow	-2301
▁bedroom	-2302
▁polite	-2303
▁Rex	-2304
▁mysterious	-2305
▁waves	-2306
▁glass	-2307
▁sighed	-2308
▁shore	-2309
▁pri	-2310
▁seed	-2311
▁wolf	-2312
▁Mark	-2313
▁seek	-2314
▁determined	-2315
kin	-2316
Stop	-2317
▁puzzle	-2318
▁powerful	-2319
▁thankful	-2320
fl	-2321
▁class	-2322
▁Br	-2323
▁ner	-2324
▁pir	-2325
▁sandwich	-2326
▁fig	-2327
▁sleepy	-2328
▁prince	-2329
▁passed	-2330
▁drew	-2331
▁Bl	-2332
▁Susie	-2333
▁finger	-2334
▁jelly	-2335
▁nervous	-2336
▁pizza	-2337
▁frustrated	-2338
▁spicy	-2339
▁gun	-2340
▁spoil	-2341
▁match	-2342
▁fancy	-2343
▁messy	-2344
osaur	-2345
work	-2346
▁gate	-2347
▁bridge	-2348
▁lock	-2349
▁kissed	-2350
▁tick	-2351
aul	-2352
▁closet	-2353
▁fear	-2354
▁reg	-2355
af	-2356
▁feed	-2357
▁mot	-2358
▁sold	-2359
▁wis	-2360
▁gathered	-2361
▁excite	-2362
▁av	-2363
▁poor	-2364
▁circ	-2365
ote	-2366
▁hang	-2367
erpill	-2368
▁caterpill	-2369
▁esc	-2370
▁flag	-2371
oop	-2372
▁pin	-2373
▁grumpy	-2374
▁van	-2375
iddle	-2376
▁dinosaur	-2377
ella	-2378
▁yourself	-2379
ano	-2380
issors	-2381
uce	-2382
▁answered	-2383
▁cries	-2384
Are	-2385
▁often	-2386
itter	-2387
▁twirl	-2388
selves	-2389
▁chest	-2390
sist	-2391
▁scissors	-2392
▁hopping	-2393
▁tears	-2394
pack	-2395
gly	-2396
Sorry	-2397
mb	-2398
▁mummy	-2399
Ben	-2400
▁Dan	-2401
▁Today	-2402
▁ugly	-2403
▁burn	-2404
ensive	-2405
▁cand	-2406
▁deer	-2407
▁drop	-2408
▁fil	-2409
illed	-2410
▁excitement	-2411
era	-2412
izzy	-2413
▁caterpillar	-2414
▁lit	-2415
▁working	-2416
▁middle	-2417
▁expensive	-2418
▁scr	-2419
▁saved	-2420
▁taken	-2421
▁ok	-2422
▁true	-2423
▁wagged	-2424
▁ones	-2425
▁pleased	-2426
▁crown	-2427
▁spend	-2428
▁boring	-2429
▁picks	-2430
▁leg	-2431
que	-2432
oof	-2433
ugar	-2434
▁vase	-2435
▁tent	-2436
▁asking	-2437
body	-2438
ual	-2439
▁brush	-2440
▁tie	-2441
▁Bobby	-2442
ates	-2443
▁vegetables	-2444
ecially	-2445
▁giggled	-2446
▁boss	-2447
ete	-2448
Who	-2449
▁mistake	-2450
▁cage	-2451
ser	-2452
▁gets	-2453
light	-2454
▁rocket	-2455
▁cap	-2456
▁mir	-2457
▁comfortable	-2458
▁sugar	-2459
▁eld	-2460
▁stuff	-2461
▁packed	-2462
▁dancing	-2463
pecially	-2464
▁especially	-2465
▁wander	-2466
▁clown	-2467
▁medic	-2468
▁number	-2469
▁press	-2470
▁sight	-2471
▁knight	-2472
ggs	-2473
ots	-2474
▁fruits	-2475
iness	-2476
▁Eventually	-2477
▁eggs	-2478
▁lying	-2479
▁drum	-2480
▁pus	-2481
▁fake	-2482
▁dest	-2483
ror	-2484
▁medicine	-2485
▁walks	-2486
▁distance	-2487
aged	-2488
▁glue	-2489
▁Mandy	-2490
▁splashed	-2491
▁No	-2492
▁sweetie	-2493
▁U	-2494
▁bake	-2495
▁flut	-2496
▁bone	-2497
▁Blue	-2498
▁drawing	-2499
▁moving	-2500
▁Kitty	-2501
▁disappeared	-2502
▁week	-2503
▁OK	-2504
▁lead	-2505
▁smelly	-2506
▁clap	-2507
▁become	-2508
▁lemon	-2509
▁change	-2510
▁pray	-2511
▁feathers	-2512
ha	-2513
▁moms	-2514
▁lose	-2515
▁If	-2516
▁mov	-2517
▁licked	-2518
▁calling	-2519
▁twist	-2520
▁dogs	-2521
▁bathroom	-2522
▁Pete	-2523
▁playground	-2524
ory	-2525
yal	-2526
▁Fred	-2527
▁fis	-2528
▁lazy	-2529
▁roar	-2530
▁elderly	-2531
▁weak	-2532
▁incred	-2533
▁cri	-2534
▁gar	-2535
?".	-2536
▁body	-2537
Now	-2538
▁horn	-2539
▁exam	-2540
▁crack	-2541
▁questions	-2542
▁add	-2543
▁wrote	-2544
▁yog	-2545
▁yours	-2546
▁noisy	-2547
▁father	-2548
▁mirror	-2549
uggest	-2550
▁mic	-2551
▁nod	-2552
▁suggest	-2553
ating	-2554
elp	-2555
eez	-2556
▁fluffy	-2557
▁skipped	-2558
▁ed	-2559
▁wheel	-2560
▁eager	-2561
▁loyal	-2562
▁lamp	-2563
▁dish	-2564
▁ext	-2565
▁clear	-2566
▁famous	-2567
▁Ellie	-2568
land	-2569
▁End	-2570
▁dig	-2571
▁ruined	-2572
▁stones	-2573
ination	-2574
▁rich	-2575
▁rare	-2576
▁ord	-2577
▁tape	-2578
▁sell	-2579
▁drank	-2580
▁content	-2581
▁figure	-2582
▁queen	-2583
▁march	-2584
▁incredible	-2585
▁glow	-2586
▁map	-2587
▁shows	-2588
▁rid	-2589
ti	-2590
▁check	-2591
▁juicy	-2592
▁soap	-2593
▁covered	-2594
▁ind	-2595
▁balls	-2596
▁sailed	-2597
▁relax	-2598
▁aw	-2599
▁shoot	-2600
illi	-2601
hip	-2602
▁team	-2603
ately	-2604
▁measure	-2605
▁decide	-2606
▁realised	-2607
umbled	-2608
▁discovered	-2609
▁coins	-2610
▁needs	-2611
▁borrow	-2612
▁swan	-2613
▁straw	-2614
▁Ella	-2615
fic	-2616
▁adventur	-2617
cept	-2618
Help	-2619
▁cleaned	-2620
▁branches	-2621
▁towel	-2622
▁boys	-2623
▁extra	-2624
▁ham	-2625
asing	-2626
▁Mar	-2627
imp	-2628
Well	-2629
▁board	-2630
▁Bella	-2631
Be	-2632
▁chicken	-2633
▁barn	-2634
▁mod	-2635
▁tiger	-2636
▁motor	-2637
▁tag	-2638
▁adventurous	-2639
▁joke	-2640
▁diffic	-2641
▁offered	-2642
▁fine	-2643
keep	-2644
▁balance	-2645
▁Brown	-2646
▁lifted	-2647
ique	-2648
▁bubbles	-2649
▁colourful	-2650
▁frown	-2651
▁Rose	-2652
▁turt	-2653
▁eye	-2654
▁thick	-2655
▁difficult	-2656
▁bottom	-2657
▁track	-2658
▁toug	-2659
alous	-2660
▁organized	-2661
▁cover	-2662
▁happening	-2663
▁unique	-2664
rag	-2665
▁jealous	-2666
▁dolp	-2667
▁hose	-2668
port	-2669
▁knife	-2670
▁weird	-2671
▁island	-2672
▁Bobo	-2673
▁garage	-2674
cil	-2675
▁Mrs	-2676
▁fright	-2677
▁managed	-2678
imed	-2679
▁hurts	-2680
▁pencil	-2681
▁once	-2682
▁word	-2683
ject	-2684
▁crawled	-2685
▁cost	-2686
▁learning	-2687
▁arg	-2688
▁circle	-2689
▁saying	-2690
▁Dave	-2691
▁kindness	-2692
ured	-2693
Me	-2694
▁berries	-2695
▁tough	-2696
olog	-2697
▁Mike	-2698
▁Fr	-2699
▁mighty	-2700
▁balloons	-2701
▁pointing	-2702
▁bald	-2703
▁chase	-2704
▁favour	-2705
ready	-2706
▁wand	-2707
ddy	-2708
▁ter	-2709
keeper	-2710
lies	-2711
▁shake	-2712
iv	-2713
▁jewel	-2714
▁louder	-2715
ipper	-2716
▁added	-2717
ages	-2718
▁batter	-2719
▁sil	-2720
▁hunt	-2721
▁guit	-2722
▁harder	-2723
▁guess	-2724
▁apolog	-2725
▁unus	-2726
▁edge	-2727
head	-2728
▁already	-2729
▁four	-2730
▁Tweety	-2731
▁ang	-2732
▁spun	-2733
▁favourite	-2734
▁fool	-2735
▁norm	-2736
▁whale	-2737
ipp	-2738
▁unusual	-2739
▁libr	-2740
▁valu	-2741
rage	-2742
alk	-2743
▁enjoying	-2744
▁dizzy	-2745
▁Grandpa	-2746
aw	-2747
▁hats	-2748
▁pump	-2749
▁belonged	-2750
▁grace	-2751
▁wrapped	-2752
▁cheerful	-2753
▁smoke	-2754
uggled	-2755
▁impressed	-2756
▁strawber	-2757
▁trucks	-2758
▁record	-2759
▁giving	-2760
▁sword	-2761
▁market	-2762
▁grown	-2763
▁ref	-2764
▁laughs	-2765
▁trunk	-2766
▁normal	-2767
anged	-2768
▁grand	-2769
▁hero	-2770
▁ears	-2771
▁guitar	-2772
▁loudly	-2773
ola	-2774
illiant	-2775
▁harm	-2776
▁turtle	-2777
▁banana	-2778
▁proudly	-2779
▁boxes	-2780
▁scare	-2781
ature	-2782
▁Soph	-2783
ilt	-2784
▁brilliant	-2785
▁choose	-2786
▁brothers	-2787
ery	-2788
▁circles	-2789
▁whisp	-2790
▁terri	-2791
Here	-2792
▁bossy	-2793
Tim	-2794
▁dreamed	-2795
▁against	-2796
▁escape	-2797
ym	-2798
▁goat	-2799
▁invited	-2800
▁skin	-2801
▁cab	-2802
▁helps	-2803
gy	-2804
cient	-2805
▁compet	-2806
▁pil	-2807
ipe	-2808
▁painting	-2809
▁means	-2810
▁melt	-2811
▁frightened	-2812
▁accept	-2813
fast	-2814
▁pee	-2815
▁flash	-2816
▁safely	-2817
▁depend	-2818
▁buttons	-2819
▁slipped	-2820
▁design	-2821
▁stubb	-2822
▁birdie	-2823
▁jack	-2824
▁wrap	-2825
▁cabin	-2826
▁valuable	-2827
▁crayon	-2828
▁wake	-2829
▁stream	-2830
▁walls	-2831
▁happiness	-2832
ouses	-2833
▁breakfast	-2834
▁log	-2835
erry	-2836
▁ancient	-2837
edient	-2838
▁study	-2839
▁successful	-2840
▁clay	-2841
emo	-2842
orge	-2843
▁knows	-2844
▁foolish	-2845
▁Lola	-2846
▁toast	-2847
▁My	-2848
▁falls	-2849
ye	-2850
▁fridge	-2851
▁lean	-2852
▁Nemo	-2853
▁stubborn	-2854
▁unl	-2855
▁nicely	-2856
atch	-2857
apping	-2858
▁shape	-2859
omed	-2860
▁fier	-2861
▁Ge	-2862
▁cudd	-2863
▁rough	-2864
▁dreams	-2865
▁movie	-2866
▁space	-2867
▁houses	-2868
▁city	-2869
▁nosy	-2870
▁bloom	-2871
▁delicate	-2872
▁obedient	-2873
▁fierce	-2874
▁office	-2875
▁tomato	-2876
▁fat	-2877
▁grandpa	-2878
ado	-2879
az	-2880
laimed	-2881
▁icy	-2882
▁competit	-2883
▁suggested	-2884
▁shark	-2885
▁dead	-2886
▁notice	-2887
▁wagon	-2888
pes	-2889
▁exclaimed	-2890
▁mem	-2891
▁kinds	-2892
▁mixed	-2893
▁wiped	-2894
▁cher	-2895
▁useful	-2896
ext	-2897
▁poured	-2898
▁shells	-2899
uth	-2900
œLet	-2901
▁stri	-2902
▁lights	-2903
▁locked	-2904
▁sounded	-2905
▁tools	-2906
▁thu	-2907
▁stove	-2908
▁excitedly	-2909
▁explored	-2910
▁aunt	-2911
wards	-2912
▁egg	-2913
▁frag	-2914
▁rose	-2915
!".	-2916
▁son	-2917
oppy	-2918
▁shadow	-2919
▁times	-2920
▁cro	-2921
▁enc	-2922
▁bags	-2923
▁fountain	-2924
ention	-2925
oot	-2926
▁themselves	-2927
▁George	-2928
▁stumbled	-2929
▁bushes	-2930
ache	-2931
▁weal	-2932
dom	-2933
arry	-2934
▁low	-2935
▁showing	-2936
▁spoiled	-2937
rell	-2938
▁fingers	-2939
▁perform	-2940
▁lab	-2941
▁above	-2942
vice	-2943
▁thoughtful	-2944
▁resc	-2945
▁Ducky	-2946
▁independ	-2947
kn	-2948
▁smaller	-2949
▁witch	-2950
▁dough	-2951
na	-2952
▁fragile	-2953
▁dependable	-2954
▁raced	-2955
▁jog	-2956
ray	-2957
▁Whenever	-2958
arth	-2959
▁playful	-2960
inal	-2961
▁seem	-2962
▁helm	-2963
▁spinning	-2964
▁eng	-2965
▁tele	-2966
corn	-2967
▁clock	-2968
▁brightly	-2969
ines	-2970
▁print	-2971
▁rode	-2972
▁stretch	-2973
▁parrot	-2974
ormous	-2975
▁delighted	-2976
▁built	-2977
▁admired	-2978
▁law	-2979
▁enormous	-2980
▁Cl	-2981
▁Sn	-2982
▁kicked	-2983
▁roof	-2984
▁counted	-2985
▁jam	-2986
▁swe	-2987
▁rat	-2988
▁practice	-2989
reen	-2990
▁orig	-2991
▁ways	-2992
▁changed	-2993
▁shone	-2994
▁sunfl	-2995
▁cop	-2996
▁reminded	-2997
▁twig	-2998
▁acorn	-2999
ither	-3000
▁cam	-3001
ience	-3002
▁sniff	-3003
▁zip	-3004
eeze	-3005
▁hammer	-3006
▁independent	-3007
▁Your	-3008
▁Bill	-3009
▁using	-3010
▁bitter	-3011
▁handed	-3012
▁whispered	-3013
▁hoop	-3014
known	-3015
▁Toby	-3016
mbrell	-3017
▁chose	-3018
▁chir	-3019
anut	-3020
▁loll	-3021
▁jolly	-3022
▁umbrell	-3023
▁cone	-3024
▁tunn	-3025
▁solve	-3026
▁stronger	-3027
▁bees	-3028
▁serious	-3029
ipop	-3030
▁original	-3031
▁steal	-3032
▁tummy	-3033
▁beak	-3034
▁terrible	-3035
▁brace	-3036
œYes	-3037
▁mis	-3038
▁popcorn	-3039
▁fre	-3040
▁painted	-3041
▁lollipop	-3042
▁boats	-3043
▁allowed	-3044
▁hairy	-3045
ict	-3046
▁moder	-3047
iable	-3048
▁sauce	-3049
▁cleaning	-3050
▁unknown	-3051
▁leaving	-3052
▁dust	-3053
▁gasped	-3054
▁finding	-3055
▁joined	-3056
▁guard	-3057
▁salad	-3058
▁potato	-3059
het	-3060
▁bean	-3061
▁pumpkin	-3062
iew	-3063
▁picking	-3064
▁clum	-3065
inary	-3066
▁dove	-3067
anger	-3068
▁bump	-3069
▁half	-3070
▁sink	-3071
amond	-3072
▁costum	-3073
uring	-3074
▁Joey	-3075
▁yet	-3076
robe	-3077
▁metal	-3078
▁tank	-3079
▁bounce	-3080
▁reliable	-3081
▁post	-3082
▁tor	-3083
▁view	-3084
▁doesn	-3085
▁those	-3086
▁forth	-3087
aghet	-3088
aghetti	-3089
▁diamond	-3090
▁dolphin	-3091
▁advice	-3092
com	-3093
▁hay	-3094
▁barber	-3095
▁modern	-3096
pid	-3097
▁Kim	-3098
▁rubb	-3099
▁stamp	-3100
▁thinking	-3101
▁gem	-3102
▁ing	-3103
▁holds	-3104
gu	-3105
ebra	-3106
▁pirate	-3107
ugged	-3108
▁marble	-3109
▁create	-3110
How	-3111
▁regular	-3112
▁Pe	-3113
redient	-3114
▁ingredient	-3115
▁clumsy	-3116
▁sleeping	-3117
▁searching	-3118
▁stairs	-3119
▁wealthy	-3120
▁yarn	-3121
See	-3122
▁rushed	-3123
▁stupid	-3124
▁prep	-3125
ilty	-3126
▁telling	-3127
▁spaghetti	-3128
▁guilty	-3129
▁cheap	-3130
▁peanut	-3131
▁goose	-3132
▁char	-3133
œWhat	-3134
▁Ro	-3135
cu	-3136
▁rub	-3137
▁flex	-3138
▁magn	-3139
ations	-3140
▁Polly	-3141
▁compass	-3142
▁opens	-3143
▁mask	-3144
▁patch	-3145
▁stat	-3146
▁arrow	-3147
▁zebra	-3148
▁engine	-3149
▁Andy	-3150
▁Sophie	-3151
io	-3152
▁thunder	-3153
▁knock	-3154
▁square	-3155
▁Ba	-3156
illa	-3157
eezed	-3158
irsty	-3159
▁angel	-3160
▁Bear	-3161
▁cur	-3162
▁graceful	-3163
▁camera	-3164
▁umbrella	-3165
cod	-3166
▁driving	-3167
▁bull	-3168
▁crazy	-3169
▁shiver	-3170
▁washed	-3171
▁carrying	-3172
▁stage	-3173
isk	-3174
▁popular	-3175
▁beet	-3176
▁dull	-3177
umbers	-3178
œIt	-3179
▁missing	-3180
▁Alex	-3181
▁sparkled	-3182
▁friendship	-3183
▁truth	-3184
shion	-3185
▁meal	-3186
fa	-3187
▁seeds	-3188
Go	-3189
▁flexible	-3190
▁impressive	-3191
▁sne	-3192
▁tied	-3193
▁pebble	-3194
time	-3195
▁careless	-3196
▁library	-3197
▁imagined	-3198
▁comb	-3199
▁fresh	-3200
▁deliver	-3201
▁nature	-3202
▁shel	-3203
▁ending	-3204
▁destro	-3205
▁patter	-3206
▁jacket	-3207
▁persist	-3208
▁reward	-3209
▁handle	-3210
ision	-3211
▁rubbed	-3212
▁ingredients	-3213
▁dreaming	-3214
▁shocked	-3215
ric	-3216
▁prize	-3217
oomy	-3218
▁sudden	-3219
▁crocod	-3220
▁load	-3221
▁enth	-3222
ief	-3223
▁pige	-3224
ibb	-3225
▁pattern	-3226
▁compassion	-3227
▁envel	-3228
▁Next	-3229
▁thirsty	-3230
▁flashlight	-3231
▁sadly	-3232
▁encou	-3233
▁stranger	-3234
arsh	-3235
ince	-3236
▁enthus	-3237
▁wheels	-3238
▁desk	-3239
œLetâ	-3240
ement	-3241
Re	-3242
▁reading	-3243
▁wire	-3244
▁discover	-3245
▁early	-3246
▁mailbox	-3247
▁fork	-3248
▁suit	-3249
▁Charl	-3250
▁numbers	-3251
▁tem	-3252
▁peeked	-3253
▁penny	-3254
▁butterflies	-3255
awn	-3256
▁cryst	-3257
▁spilled	-3258
▁bracelet	-3259
▁torn	-3260
▁rug	-3261
▁gum	-3262
▁stops	-3263
loo	-3264
▁Paul	-3265
▁rece	-3266
▁env	-3267
▁comput	-3268
▁ahead	-3269
▁spring	-3270
bled	-3271
▁order	-3272
▁towers	-3273
comfort	-3274
▁sorts	-3275
▁object	-3276
ellig	-3277
▁wing	-3278
▁bent	-3279
▁anx	-3280
▁cere	-3281
▁surf	-3282
oe	-3283
▁pengu	-3284
▁earth	-3285
▁intellig	-3286
▁warned	-3287
▁windows	-3288
▁spoke	-3289
▁pup	-3290
▁pow	-3291
gest	-3292
▁humble	-3293
There	-3294
▁uncomfort	-3295
▁avo	-3296
▁note	-3297
▁pant	-3298
▁uncomfortable	-3299
▁placed	-3300
Yay	-3301
iches	-3302
▁sunflower	-3303
▁pale	-3304
▁travel	-3305
▁super	-3306
▁badly	-3307
▁older	-3308
▁slides	-3309
▁anxious	-3310
ikes	-3311
▁biggest	-3312
▁scale	-3313
▁compl	-3314
▁couldnâ	-3315
▁stack	-3316
▁flute	-3317
▁trap	-3318
▁statue	-3319
▁scoot	-3320
▁counting	-3321
▁growing	-3322
▁cooking	-3323
Ow	-3324
▁complet	-3325
▁liz	-3326
▁tunnel	-3327
▁beetle	-3328
▁celebrate	-3329
host	-3330
▁mel	-3331
▁cupboard	-3332
▁Here	-3333
▁mush	-3334
They	-3335
▁sofa	-3336
▁harmless	-3337
▁nail	-3338
▁scatter	-3339
▁Pat	-3340
▁beauty	-3341
▁mole	-3342
▁deaf	-3343
▁value	-3344
▁nurse	-3345
▁perm	-3346
▁er	-3347
▁shut	-3348
▁persistent	-3349
▁jumps	-3350
▁crocodile	-3351
▁hung	-3352
▁ghost	-3353
▁gifted	-3354
▁refused	-3355
▁charming	-3356
▁trick	-3357
▁Give	-3358
▁neat	-3359
▁names	-3360
▁courage	-3361
▁yawn	-3362
opus	-3363
▁flour	-3364
ctopus	-3365
▁crane	-3366
▁curt	-3367
▁pretending	-3368
cream	-3369
▁pony	-3370
▁base	-3371
▁cereal	-3372
▁sandwiches	-3373
▁Hen	-3374
ices	-3375
▁raven	-3376
▁snuggled	-3377
▁curtain	-3378
▁destroy	-3379
▁support	-3380
▁tur	-3381
▁ordinary	-3382
▁Un	-3383
▁chasing	-3384
▁univer	-3385
▁Look	-3386
aid	-3387
▁question	-3388
▁envelope	-3389
aches	-3390
▁drawer	-3391
▁triang	-3392
▁vi	-3393
▁camp	-3394
▁sett	-3395
ud	-3396
▁computer	-3397
▁octopus	-3398
▁attract	-3399
▁rules	-3400
▁crawl	-3401
▁lively	-3402
▁send	-3403
▁gloomy	-3404
▁cartoon	-3405
▁uncle	-3406
ips	-3407
▁intelligent	-3408
▁may	-3409
▁piano	-3410
▁speed	-3411
▁package	-3412
▁blueber	-3413
▁shaking	-3414
▁fu	-3415
▁helmet	-3416
▁crystal	-3417
▁needle	-3418
▁mushroom	-3419
▁turkey	-3420
▁collar	-3421
He	-3422
▁parade	-3423
▁creatures	-3424
stri	-3425
heart	-3426
œThat	-3427
▁hurry	-3428
▁twirled	-3429
▁phot	-3430
▁lizard	-3431
erable	-3432
orant	-3433
aff	-3434
ubby	-3435
▁alert	-3436
▁miserable	-3437
▁thief	-3438
gust	-3439
und	-3440
▁station	-3441
▁soldier	-3442
▁hunter	-3443
▁Grace	-3444
ceed	-3445
▁task	-3446
▁pepper	-3447
▁Will	-3448
▁anywhere	-3449
▁dug	-3450
▁disgust	-3451
▁bicy	-3452
▁fireman	-3453
▁ener	-3454
cut	-3455
▁Henry	-3456
▁carp	-3457
iest	-3458
▁Before	-3459
▁wishes	-3460
▁seal	-3461
ses	-3462
▁resist	-3463
▁led	-3464
▁vide	-3465
▁beep	-3466
▁ignorant	-3467
▁bandage	-3468
coa	-3469
▁stickers	-3470
▁Brownie	-3471
▁Charlie	-3472
▁screen	-3473
▁radio	-3474
▁bounced	-3475
▁helpless	-3476
▁Annie	-3477
tter	-3478
▁trash	-3479
Give	-3480
▁second	-3481
▁leash	-3482
▁repe	-3483
▁practiced	-3484
▁muff	-3485
▁shine	-3486
▁chance	-3487
▁letters	-3488
▁attractive	-3489
▁mill	-3490
▁impat	-3491
▁cricket	-3492
▁stirred	-3493
▁jeep	-3494
▁stretched	-3495
▁nobody	-3496
urb	-3497
▁thread	-3498
▁pasta	-3499
▁cube	-3500
▁pand	-3501
▁chubby	-3502
ummer	-3503
▁tooth	-3504
▁Sh	-3505
▁pigeon	-3506
▁jet	-3507
▁gir	-3508
▁compassionate	-3509
ccol	-3510
If	-3511
▁club	-3512
ccoli	-3513
ne	-3514
▁trump	-3515
▁disturb	-3516
orable	-3517
▁decorate	-3518
▁Tweetie	-3519
▁Jerry	-3520
▁cocoa	-3521
▁brighter	-3522
▁jug	-3523
▁impatient	-3524
▁steps	-3525
▁tire	-3526
▁competitive	-3527
arian	-3528
▁further	-3529
▁otter	-3530
▁respectful	-3531
▁succeed	-3532
▁troubled	-3533
▁pressed	-3534
olin	-3535
▁Bet	-3536
▁itself	-3537
aked	-3538
▁bet	-3539
▁ostri	-3540
noon	-3541
▁candle	-3542
▁mug	-3543
▁afternoon	-3544
▁attic	-3545
▁restless	-3546
▁starts	-3547
▁pun	-3548
▁Sandy	-3549
▁Tr	-3550
▁tap	-3551
▁somewhere	-3552
illie	-3553
▁Are	-3554
▁ribb	-3555
aurant	-3556
stic	-3557
▁dess	-3558
▁quar	-3559
▁carpet	-3560
▁anyway	-3561
▁shouts	-3562
▁shoe	-3563
▁Lilly	-3564
▁adorable	-3565
▁disgusting	-3566
▁restaurant	-3567
▁skip	-3568
▁leop	-3569
▁fort	-3570
gn	-3571
▁Where	-3572
▁pants	-3573
▁vine	-3574
▁tray	-3575
▁nuts	-3576
▁waff	-3577
▁case	-3578
come	-3579
▁gor	-3580
▁fearful	-3581
▁screw	-3582
▁envious	-3583
▁sweetheart	-3584
opter	-3585
▁allig	-3586
icopter	-3587
▁cards	-3588
iastic	-3589
▁distant	-3590
▁enthusiastic	-3591
▁broccoli	-3592
▁Danny	-3593
▁hipp	-3594
▁Mag	-3595
▁filthy	-3596
▁Lee	-3597
▁giggle	-3598
▁exper	-3599
▁trumpet	-3600
▁cooked	-3601
▁helicopter	-3602
▁monkeys	-3603
▁Everything	-3604
night	-3605
▁reco	-3606
▁por	-3607
irit	-3608
▁sandbox	-3609
aroo	-3610
angaroo	-3611
▁harsh	-3612
▁hook	-3613
▁Would	-3614
▁bri	-3615
▁admire	-3616
▁nowhere	-3617
▁ten	-3618
▁backpack	-3619
gging	-3620
▁soar	-3621
▁sent	-3622
▁belt	-3623
▁batht	-3624
gie	-3625
▁explain	-3626
▁scooter	-3627
▁ants	-3628
▁Snow	-3629
▁meas	-3630
opl	-3631
▁poem	-3632
eropl	-3633
▁country	-3634
cycle	-3635
▁bathtub	-3636
▁pipe	-3637
▁aeropl	-3638
▁barking	-3639
▁quite	-3640
▁unpack	-3641
stairs	-3642
par	-3643
▁cows	-3644
▁speak	-3645
▁kangaroo	-3646
▁lid	-3647
nna	-3648
▁squash	-3649
▁Maria	-3650
▁leopard	-3651
▁mama	-3652
▁happier	-3653
▁spell	-3654
▁repair	-3655
▁Red	-3656
▁listening	-3657
▁bicycle	-3658
▁separ	-3659
▁Jess	-3660
imi	-3661
▁Sm	-3662
▁Pap	-3663
▁summer	-3664
▁stared	-3665
▁grabs	-3666
▁message	-3667
▁breat	-3668
▁Millie	-3669
uct	-3670
▁didnâ	-3671
▁ostrich	-3672
▁firework	-3673
▁human	-3674
▁loop	-3675
▁given	-3676
▁Kate	-3677
▁comet	-3678
▁mule	-3679
hood	-3680
▁Baby	-3681
▁sort	-3682
▁impro	-3683
▁Bunny	-3684
▁gorilla	-3685
▁modest	-3686
▁paid	-3687
▁finds	-3688
year	-3689
▁yogurt	-3690
▁dessert	-3691
▁obser	-3692
▁meat	-3693
▁violin	-3694
▁ur	-3695
Bye	-3696
▁hedge	-3697
ipping	-3698
▁spirit	-3699
▁Ted	-3700
▁pulls	-3701
▁tripped	-3702
▁jellyfish	-3703
▁melon	-3704
▁split	-3705
▁Papa	-3706
▁paws	-3707
▁alligator	-3708
▁fle	-3709
▁rescue	-3710
▁size	-3711
▁holes	-3712
▁prov	-3713
ucked	-3714
▁Harry	-3715
▁roared	-3716
▁five	-3717
▁forgave	-3718
▁Mimi	-3719
▁cats	-3720
▁wheat	-3721
▁purse	-3722
▁recogn	-3723
▁hippo	-3724
▁pilot	-3725
▁hall	-3726
▁tax	-3727
▁sheet	-3728
▁pal	-3729
▁cact	-3730
▁pushing	-3731
▁inse	-3732
ophone	-3733
▁bikes	-3734
▁organize	-3735
ci	-3736
▁swinging	-3737
▁sle	-3738
▁raft	-3739
▁scold	-3740
▁starting	-3741
▁salt	-3742
▁shade	-3743
▁behave	-3744
▁bin	-3745
▁lightning	-3746
▁oat	-3747
▁rice	-3748
▁haircut	-3749
▁Buddy	-3750
▁triangle	-3751
▁brus	-3752
eer	-3753
▁buzz	-3754
▁Ros	-3755
▁energy	-3756
iskers	-3757
œYou	-3758
▁knot	-3759
▁frowned	-3760
bul	-3761
▁bur	-3762
▁lear	-3763
aled	-3764
▁learnt	-3765
▁either	-3766
▁porch	-3767
▁math	-3768
▁riding	-3769
▁ped	-3770
▁lip	-3771
lcano	-3772
seum	-3773
▁trains	-3774
Anna	-3775
ebook	-3776
▁ended	-3777
▁sticker	-3778
▁notebook	-3779
iling	-3780
inking	-3781
▁lend	-3782
▁wallet	-3783
▁luck	-3784
▁evening	-3785
reci	-3786
▁panda	-3787
▁cactus	-3788
▁Whiskers	-3789
▁jokes	-3790
▁chalk	-3791
▁bananas	-3792
▁papers	-3793
▁rod	-3794
▁museum	-3795
▁sweater	-3796
▁appreci	-3797
▁lions	-3798
▁palace	-3799
▁Ru	-3800
▁taxi	-3801
▁volcano	-3802
ube	-3803
▁shopkeeper	-3804
▁chain	-3805
▁bears	-3806
▁strawberry	-3807
▁rolling	-3808
▁boots	-3809
▁eras	-3810
▁hadn	-3811
astic	-3812
▁neighbour	-3813
▁barrel	-3814
▁shakes	-3815
▁micr	-3816
ffe	-3817
▁Tony	-3818
TMm	-3819
icer	-3820
ffee	-3821
ooped	-3822
▁silver	-3823
urch	-3824
▁laund	-3825
▁alive	-3826
▁smells	-3827
▁mild	-3828
play	-3829
▁reind	-3830
▁sock	-3831
▁laundry	-3832
▁steak	-3833
▁avoc	-3834
▁pole	-3835
▁ink	-3836
▁strugg	-3837
iron	-3838
▁pushes	-3839
▁putting	-3840
▁visited	-3841
▁goal	-3842
▁softly	-3843
▁magnet	-3844
▁judge	-3845
edy	-3846
▁James	-3847
▁tricks	-3848
▁drawings	-3849
▁microphone	-3850
▁clapping	-3851
▁pad	-3852
▁ol	-3853
▁hive	-3854
▁shield	-3855
▁tube	-3856
▁leaned	-3857
▁colours	-3858
▁sailor	-3859
▁shovel	-3860
▁airport	-3861
▁zoomed	-3862
▁falling	-3863
▁rag	-3864
▁belongs	-3865
▁shelter	-3866
▁Bun	-3867
▁unlock	-3868
▁sprink	-3869
▁Inst	-3870
▁checked	-3871
elery	-3872
▁insist	-3873
▁penguin	-3874
▁quarrel	-3875
happy	-3876
▁ambul	-3877
▁climbing	-3878
▁marched	-3879
▁gro	-3880
▁display	-3881
▁reindeer	-3882
cast	-3883
hino	-3884
▁saus	-3885
ense	-3886
▁aeroplane	-3887
▁dive	-3888
▁dishes	-3889
ophy	-3890
▁Kat	-3891
▁polish	-3892
▁barks	-3893
ges	-3894
▁avail	-3895
▁Maggie	-3896
▁donâ	-3897
▁fields	-3898
▁grapes	-3899
▁sandcast	-3900
▁ambulance	-3901
▁peek	-3902
▁Or	-3903
ait	-3904
▁apologized	-3905
▁soil	-3906
▁yach	-3907
▁skill	-3908
▁coffee	-3909
sely	-3910
▁costume	-3911
▁elev	-3912
▁trophy	-3913
▁oy	-3914
▁feelings	-3915
▁planet	-3916
▁hoping	-3917
anic	-3918
▁film	-3919
▁prun	-3920
▁art	-3921
▁rubber	-3922
▁unhappy	-3923
ron	-3924
▁drops	-3925
nger	-3926
▁shrimp	-3927
▁medal	-3928
€“	-3929
▁kitty	-3930
▁thanks	-3931
▁raining	-3932
▁men	-3933
chanic	-3934
▁stom	-3935
▁minute	-3936
▁elevator	-3937
▁cord	-3938
▁celery	-3939
▁rhino	-3940
▁onion	-3941
▁available	-3942
ected	-3943
▁eraser	-3944
▁incl	-3945
▁page	-3946
▁short	-3947
▁yacht	-3948
reeze	-3949
▁fisher	-3950
▁shouldn	-3951
▁perfectly	-3952
▁imagine	-3953
▁wool	-3954
▁marry	-3955
▁winter	-3956
▁basketball	-3957
▁mechanic	-3958
▁diary	-3959
nam	-3960
▁bul	-3961
▁herb	-3962
▁flies	-3963
▁complete	-3964
▁rever	-3965
▁appl	-3966
▁Ab	-3967
▁closely	-3968
aused	-3969
▁cardboard	-3970
▁insect	-3971
▁magaz	-3972
▁eagerly	-3973
▁player	-3974
▁journal	-3975
▁Smith	-3976
Ha	-3977
enny	-3978
▁vend	-3979
▁baking	-3980
▁quit	-3981
▁furn	-3982
▁glove	-3983
iture	-3984
▁Clara	-3985
▁disag	-3986
▁furniture	-3987
▁stuffed	-3988
▁tub	-3989
▁Jul	-3990
▁breaks	-3991
▁imagination	-3992
▁bulb	-3993
▁treasures	-3994
▁Miss	-3995
▁church	-3996
gen	-3997
ecause	-3998
▁counter	-3999
▁wife	-4000
▁headed	-4001
▁cooler	-4002
any	-4003
azz	-4004
▁pair	-4005
▁freez	-4006
▁frogs	-4007
▁tut	-4008
quit	-4009
▁skull	-4010
mand	-4011
ories	-4012
▁pit	-4013
▁knob	-4014
ween	-4015
▁factor	-4016
▁switch	-4017
▁football	-4018
place	-4019
▁offer	-4020
ides	-4021
▁sunset	-4022
▁between	-4023
▁lie	-4024
▁Instead	-4025
ifl	-4026
aulifl	-4027
▁cheek	-4028
▁sym	-4029
▁swung	-4030
▁factory	-4031
▁cups	-4032
▁motorcycle	-4033
Dad	-4034
pe	-4035
▁chirp	-4036
right	-4037
▁mos	-4038
quito	-4039
▁flame	-4040
..	-4041
▁twink	-4042
▁shouting	-4043
nament	-4044
▁painter	-4045
▁golf	-4046
▁peach	-4047
▁ornament	-4048
kelet	-4049
▁blowing	-4050
▁hut	-4051
affe	-4052
▁sung	-4053
▁hotel	-4054
▁seeing	-4055
▁folder	-4056
▁vendor	-4057
ccer	-4058
▁caulifl	-4059
lass	-4060
▁video	-4061
▁mixer	-4062
izes	-4063
bol	-4064
▁throws	-4065
▁pirates	-4066
▁created	-4067
orses	-4068
▁heads	-4069
▁oil	-4070
▁kay	-4071
▁May	-4072
▁frame	-4073
▁mosquito	-4074
angu	-4075
mm	-4076
▁cushion	-4077
▁soccer	-4078
▁fisherman	-4079
▁coal	-4080
zzy	-4081
▁symbol	-4082
▁horses	-4083
▁cable	-4084
ceros	-4085
▁popped	-4086
▁langu	-4087
▁wipe	-4088
ab	-4089
▁Ste	-4090
▁pine	-4091
▁attention	-4092
▁skelet	-4093
▁battery	-4094
▁powder	-4095
▁stud	-4096
▁laser	-4097
▁cauliflower	-4098
▁God	-4099
render	-4100
▁forgotten	-4101
▁weather	-4102
rod	-4103
▁lives	-4104
▁mop	-4105
▁fishing	-4106
▁celebrated	-4107
▁ax	-4108
▁rot	-4109
▁since	-4110
▁trail	-4111
▁Iâ	-4112
elcome	-4113
aws	-4114
▁maze	-4115
ef	-4116
▁photo	-4117
ites	-4118
▁yoga	-4119
▁surround	-4120
▁waving	-4121
▁slept	-4122
▁sneak	-4123
▁anch	-4124
▁dear	-4125
unately	-4126
▁giraffe	-4127
▁introd	-4128
▁rhinoceros	-4129
▁poke	-4130
▁swamp	-4131
ple	-4132
▁flea	-4133
▁points	-4134
▁Rosie	-4135
▁itch	-4136
▁point	-4137
▁glowing	-4138
▁itâ	-4139
▁fireplace	-4140
▁breeze	-4141
ney	-4142
▁True	-4143
lasses	-4144
▁sub	-4145
▁vet	-4146
Your	-4147
▁sunglasses	-4148
▁kingdom	-4149
▁memories	-4150
▁tutor	-4151
▁streng	-4152
▁tuna	-4153
▁iron	-4154
Max	-4155
▁reve	-4156
▁vest	-4157
▁Tina	-4158
spap	-4159
▁petals	-4160
▁fog	-4161
▁axe	-4162
▁mistakes	-4163
▁complain	-4164
▁baseball	-4165
▁dancer	-4166
▁chickens	-4167
▁parent	-4168
▁ig	-4169
hero	-4170
▁newspap	-4171
▁strength	-4172
▁greedy	-4173
▁ceiling	-4174
ckey	-4175
▁squirrels	-4176
▁hockey	-4177
▁igloo	-4178
▁sir	-4179
▁grin	-4180
chie	-4181
▁anchor	-4182
▁skeleton	-4183
rosc	-4184
▁sniffed	-4185
▁grocer	-4186
▁superhero	-4187
▁argue	-4188
▁napkin	-4189
▁golden	-4190
ues	-4191
▁hanging	-4192
▁trave	-4193
▁musician	-4194
medi	-4195
▁skirt	-4196
roscope	-4197
▁staff	-4198
▁temple	-4199
▁unif	-4200
▁agree	-4201
▁sque	-4202
▁bury	-4203
mediately	-4204
▁theater	-4205
▁discu	-4206
▁uniform	-4207
▁eaten	-4208
▁slipper	-4209
▁welcomed	-4210
▁seas	-4211
▁shoulder	-4212
▁zipper	-4213
▁quietly	-4214
▁meeting	-4215
ssible	-4216
▁lime	-4217
▁invest	-4218
istol	-4219
▁microscope	-4220
sing	-4221
oh	-4222
▁pinch	-4223
chair	-4224
▁flapped	-4225
▁slippery	-4226
▁accepted	-4227
▁fought	-4228
▁investig	-4229
erc	-4230
▁pistol	-4231
▁doors	-4232
▁miner	-4233
reek	-4234
▁radish	-4235
▁plastic	-4236
▁throwing	-4237
▁calls	-4238
▁bouncing	-4239
tress	-4240
▁mattress	-4241
men	-4242
▁surrender	-4243
▁cob	-4244
aces	-4245
▁pear	-4246
▁creek	-4247
▁kayak	-4248
▁vroom	-4249
house	-4250
tain	-4251
▁moves	-4252
▁sticky	-4253
Qu	-4254
▁lawy	-4255
▁novel	-4256
Wait	-4257
alley	-4258
▁cub	-4259
▁avocado	-4260
▁cared	-4261
▁suff	-4262
▁freezer	-4263
▁lotion	-4264
aud	-4265
case	-4266
ison	-4267
▁First	-4268
te	-4269
ler	-4270
was	-4271
▁fauc	-4272
▁armchair	-4273
▁writing	-4274
inked	-4275
▁reef	-4276
▁makeup	-4277
Timmy	-4278
▁mystery	-4279
▁valley	-4280
web	-4281
▁tug	-4282
▁investigate	-4283
▁news	-4284
▁sailing	-4285
▁cherries	-4286
▁regret	-4287
▁crib	-4288
llie	-4289
washer	-4290
imney	-4291
▁exerc	-4292
▁oyster	-4293
▁faucet	-4294
▁agre	-4295
▁splashing	-4296
▁ticket	-4297
▁collected	-4298
▁worth	-4299
▁chimney	-4300
▁toil	-4301
▁presents	-4302
▁dishwasher	-4303
▁magazine	-4304
▁happens	-4305
▁sprayed	-4306
▁wags	-4307
œItâ	-4308
▁prevent	-4309
▁cobweb	-4310
▁quack	-4311
▁veil	-4312
▁castles	-4313
▁entered	-4314
▁tear	-4315
▁shrugged	-4316
▁Freddy	-4317
▁har	-4318
▁passport	-4319
▁applaud	-4320
▁chess	-4321
▁separate	-4322
▁scolded	-4323
Thanks	-4324
▁weigh	-4325
▁toilet	-4326
▁alarm	-4327
ives	-4328
▁See	-4329
▁blankets	-4330
▁rake	-4331
▁ignored	-4332
▁tucked	-4333
▁lawyer	-4334
▁choice	-4335
ived	-4336
▁hopes	-4337
▁attach	-4338
▁coats	-4339
sit	-4340
▁kisses	-4341
▁follows	-4342
▁appro	-4343
▁candles	-4344
▁classroom	-4345
ring	-4346
▁puddles	-4347
▁easily	-4348
▁Me	-4349
▁apart	-4350
ety	-4351
▁disappear	-4352
▁Sad	-4353
▁beef	-4354
▁chairs	-4355
▁burned	-4356
▁bother	-4357
▁Milly	-4358
▁letting	-4359
▁straight	-4360
eterin	-4361
eterinarian	-4362
▁yield	-4363
▁ward	-4364
▁dressed	-4365
▁cane	-4366
▁trusted	-4367
▁language	-4368
▁sizes	-4369
▁veterinarian	-4370
▁raz	-4371
▁teleph	-4372
raged	-4373
▁caring	-4374
▁planes	-4375
▁wardrobe	-4376
▁jewelry	-4377
atched	-4378
▁blinked	-4379
Sam	-4380
iday	-4381
▁shower	-4382
▁rise	-4383
▁missile	-4384
▁keeping	-4385
▁lawn	-4386
▁requ	-4387
▁stable	-4388
▁cabinet	-4389
▁crossed	-4390
▁oak	-4391
▁ble	-4392
▁However	-4393
▁bookshe	-4394
vision	-4395
▁stro	-4396
▁telephone	-4397
▁newspaper	-4398
mend	-4399
▁claws	-4400
▁rooms	-4401
▁whisper	-4402
▁sigh	-4403
▁puzzles	-4404
▁aut	-4405
▁trade	-4406
▁incre	-4407
ival	-4408
▁cell	-4409
▁tornado	-4410
▁scratch	-4411
una	-4412
anges	-4413
▁Ruby	-4414
▁bookcase	-4415
▁inf	-4416
ampoo	-4417
▁blueberries	-4418
▁snap	-4419
▁amazement	-4420
▁perfu	-4421
ction	-4422
ommend	-4423
▁squeezed	-4424
▁bookshelf	-4425
▁recommend	-4426
▁opera	-4427
▁subway	-4428
▁pra	-4429
▁gym	-4430
▁delay	-4431
▁grill	-4432
▁Help	-4433
▁razor	-4434
▁blouse	-4435
▁request	-4436
▁crawling	-4437
▁pur	-4438
▁poked	-4439
€.	-4440
▁television	-4441
▁bill	-4442
▁hol	-4443
ggy	-4444
▁following	-4445
omes	-4446
iction	-4447
▁shampoo	-4448
▁file	-4449
▁licks	-4450
Sara	-4451
▁spear	-4452
▁squeeze	-4453
▁holiday	-4454
Because	-4455
And	-4456
▁experience	-4457
▁lumber	-4458
▁Is	-4459
▁improve	-4460
▁perfume	-4461
▁serve	-4462
▁demand	-4463
▁mint	-4464
▁steam	-4465
▁cliff	-4466
▁ringing	-4467
▁crow	-4468
ictionary	-4469
fortunately	-4470
ah	-4471
bbie	-4472
▁ribbon	-4473
▁immediately	-4474
▁helper	-4475
▁Fo	-4476
▁muffin	-4477
▁fest	-4478
▁growled	-4479
▁isn	-4480
▁begged	-4481
▁dictionary	-4482
▁shrink	-4483
▁matches	-4484
▁waste	-4485
▁blood	-4486
▁birdc	-4487
▁Snowy	-4488
▁prop	-4489
▁ideas	-4490
▁warmth	-4491
▁Katie	-4492
ib	-4493
▁mustache	-4494
▁sneeze	-4495
▁invite	-4496
▁People	-4497
hic	-4498
▁gear	-4499
▁birdcage	-4500
▁vehic	-4501
▁fuel	-4502
ups	-4503
▁alright	-4504
▁Luck	-4505
alend	-4506
▁rabbits	-4507
asis	-4508
▁calend	-4509
▁ignore	-4510
▁weep	-4511
▁yucky	-4512
▁flutter	-4513
▁instr	-4514
▁Luckily	-4515
▁fallen	-4516
▁married	-4517
▁berry	-4518
▁Each	-4519
lier	-4520
▁rail	-4521
▁row	-4522
▁pastry	-4523
▁refre	-4524
ucture	-4525
Did	-4526
▁worms	-4527
▁structure	-4528
▁laught	-4529
▁Liz	-4530
▁surprises	-4531
▁below	-4532
▁bravely	-4533
▁calendar	-4534
▁oasis	-4535
▁wandered	-4536
▁wigg	-4537
▁kneel	-4538
ising	-4539
▁dire	-4540
▁understanding	-4541
▁hurting	-4542
▁laughter	-4543
omeday	-4544
▁drain	-4545
▁pages	-4546
▁float	-4547
▁enter	-4548
▁hearts	-4549
Ok	-4550
▁Ollie	-4551
▁airpl	-4552
inky	-4553
▁item	-4554
▁King	-4555
omob	-4556
▁harb	-4557
▁reaches	-4558
▁apron	-4559
▁safety	-4560
Is	-4561
▁crash	-4562
▁automob	-4563
▁bathe	-4564
▁buried	-4565
œNo	-4566
▁junk	-4567
▁buckle	-4568
▁admir	-4569
▁root	-4570
▁captain	-4571
▁strawberries	-4572
achel	-4573
▁myself	-4574
▁relaxed	-4575
▁sandcastle	-4576
oral	-4577
▁skills	-4578
▁plates	-4579
Welcome	-4580
▁whip	-4581
▁Who	-4582
▁spade	-4583
▁moments	-4584
▁reverse	-4585
htray	-4586
▁Joy	-4587
▁Steve	-4588
icing	-4589
▁quiz	-4590
▁Rachel	-4591
▁ashtray	-4592
▁festival	-4593
TMre	-4594
▁Co	-4595
▁beamed	-4596
'.	-4597
▁snapped	-4598
riger	-4599
ores	-4600
▁someday	-4601
cakes	-4602
▁refriger	-4603
▁raise	-4604
▁Everyday	-4605
▁received	-4606
Yuck	-4607
▁refrigerator	-4608
▁earlier	-4609
▁tong	-4610
ari	-4611
▁lic	-4612
▁weap	-4613
▁vac	-4614
▁Betsy	-4615
▁teaching	-4616
▁mass	-4617
▁harbor	-4618
▁model	-4619
▁Its	-4620
▁sparkling	-4621
▁spots	-4622
aped	-4623
▁insisted	-4624
▁saving	-4625
▁vanished	-4626
▁bumped	-4627
▁socks	-4628
▁Buzz	-4629
▁thumb	-4630
anna	-4631
▁dried	-4632
▁supply	-4633
ission	-4634
▁Poppy	-4635
▁blackboard	-4636
igail	-4637
▁prepare	-4638
TMll	-4639
▁jail	-4640
▁jewels	-4641
▁Penny	-4642
▁spending	-4643
xy	-4644
▁balan	-4645
▁scattered	-4646
▁toes	-4647
▁scooped	-4648
▁settled	-4649
▁permission	-4650
▁V	-4651
▁sparkle	-4652
▁Frank	-4653
▁known	-4654
ctly	-4655
▁breathe	-4656
▁boot	-4657
nce	-4658
▁yawned	-4659
▁res	-4660
amber	-4661
▁achie	-4662
▁destroyed	-4663
▁bathrobe	-4664
▁Abigail	-4665
▁tease	-4666
▁remain	-4667
▁hardly	-4668
▁encouraged	-4669
▁replace	-4670
▁waffle	-4671
antly	-4672
▁pride	-4673
▁dare	-4674
▁lemonade	-4675
▁hanger	-4676
▁Have	-4677
▁sits	-4678
▁pulling	-4679
▁decorations	-4680
ops	-4681
sters	-4682
▁remove	-4683
▁cuddled	-4684
▁Dav	-4685
▁hate	-4686
▁daisy	-4687
▁license	-4688
uch	-4689
▁beans	-4690
▁simp	-4691
▁port	-4692
▁respons	-4693
▁praised	-4694
reat	-4695
▁chirping	-4696
▁hits	-4697
ents	-4698
▁equ	-4699
asp	-4700
▁fastest	-4701
▁suffer	-4702
xture	-4703
▁buzzing	-4704
▁patiently	-4705
▁dresses	-4706
▁mention	-4707
▁David	-4708
▁bleed	-4709
sity	-4710
▁rhy	-4711
▁automobile	-4712
nies	-4713
▁wiz	-4714
▁appreciate	-4715
▁poppy	-4716
▁destination	-4717
▁taller	-4718
▁mall	-4719
osed	-4720
▁homes	-4721
▁nation	-4722
ium	-4723
▁digg	-4724
▁flav	-4725
▁guy	-4726
▁climbs	-4727
▁washing	-4728
▁palm	-4729
▁glo	-4730
▁shot	-4731
▁label	-4732
▁digging	-4733
▁believed	-4734
▁approached	-4735
▁hesit	-4736
fied	-4737
▁none	-4738
▁tore	-4739
▁Mat	-4740
Mmm	-4741
▁deeper	-4742
▁wine	-4743
▁infant	-4744
ude	-4745
▁restore	-4746
▁score	-4747
▁hers	-4748
▁mitten	-4749
▁chamber	-4750
▁sausage	-4751
rm	-4752
▁struggling	-4753
▁heat	-4754
▁tongue	-4755
▁hills	-4756
▁hurric	-4757
▁punish	-4758
▁pillows	-4759
▁billboard	-4760
▁sneezed	-4761
▁sport	-4762
▁wizard	-4763
▁upstairs	-4764
▁thrilled	-4765
▁provide	-4766
▁brain	-4767
▁awe	-4768
▁discuss	-4769
▁panic	-4770
▁warning	-4771
▁twisted	-4772
▁glowed	-4773
▁universe	-4774
▁firef	-4775
▁therm	-4776
▁vacation	-4777
▁worse	-4778
▁crunch	-4779
▁poison	-4780
▁shed	-4781
▁solved	-4782
▁parts	-4783
osity	-4784
▁Spike	-4785
bey	-4786
▁event	-4787
▁setting	-4788
allen	-4789
▁tour	-4790
▁remained	-4791
▁airplane	-4792
▁hurricane	-4793
▁plays	-4794
▁thermomet	-4795
▁examine	-4796
▁sparkles	-4797
▁shooting	-4798
▁invit	-4799
▁neighborhood	-4800
▁sty	-4801
▁chores	-4802
▁oranges	-4803
▁floated	-4804
▁ranch	-4805
▁challen	-4806
thm	-4807
▁weeks	-4808
▁leak	-4809
▁university	-4810
ging	-4811
shing	-4812
▁paints	-4813
▁thermometer	-4814
▁bites	-4815
▁repeat	-4816
▁bang	-4817
adium	-4818
▁floating	-4819
▁fixing	-4820
▁measured	-4821
▁stadium	-4822
▁grinned	-4823
!'	-4824
These	-4825
!",	-4826
▁during	-4827
▁surrounded	-4828
▁supposed	-4829
aspoon	-4830
▁Cat	-4831
▁conf	-4832
▁rhythm	-4833
▁massage	-4834
▁brings	-4835
▁paused	-4836
▁cherry	-4837
▁gifts	-4838
▁fut	-4839
▁sprinkles	-4840
▁fasc	-4841
▁future	-4842
▁memory	-4843
▁Unfortunately	-4844
œIâ	-4845
▁teaspoon	-4846
▁grey	-4847
rise	-4848
▁collection	-4849
▁signs	-4850
▁marbles	-4851
bbles	-4852
▁jazz	-4853
▁stomach	-4854
Would	-4855
emember	-4856
▁Good	-4857
do	-4858
▁Zoe	-4859
▁gust	-4860
▁wisdom	-4861
▁actually	-4862
▁flood	-4863
▁discovery	-4864
▁includ	-4865
▁sew	-4866
▁vehicle	-4867
▁tide	-4868
▁lily	-4869
▁girls	-4870
▁sunrise	-4871
ishing	-4872
Sp	-4873
▁Beth	-4874
vet	-4875
œThatâ	-4876
▁meowed	-4877
ls	-4878
▁elephants	-4879
▁Chr	-4880
▁urge	-4881
▁exercise	-4882
▁mailman	-4883
umble	-4884
▁lugg	-4885
▁rush	-4886
▁decision	-4887
▁chewed	-4888
ero	-4889
▁weapon	-4890
▁strang	-4891
▁observe	-4892
▁luggage	-4893
▁unite	-4894
▁Ra	-4895
▁cartoons	-4896
▁sore	-4897
▁fascin	-4898
▁tomatoes	-4899
▁scur	-4900
iers	-4901
▁possible	-4902
▁toe	-4903
allow	-4904
cles	-4905
▁sunlight	-4906
▁Je	-4907
ities	-4908
▁folded	-4909
▁curled	-4910
▁chirped	-4911
▁melted	-4912
▁rust	-4913
▁spill	-4914
▁Jan	-4915
▁cakes	-4916
▁Qu	-4917
uing	-4918
▁sip	-4919
▁x	-4920
▁collecting	-4921
▁grape	-4922
son	-4923
▁Someone	-4924
▁mineral	-4925
▁difference	-4926
▁problems	-4927
▁bak	-4928
▁Jam	-4929
▁tracks	-4930
▁jogging	-4931
▁Remy	-4932
▁wherever	-4933
Sh	-4934
▁mountains	-4935
ipment	-4936
▁bes	-4937
▁Spark	-4938
Ready	-4939
▁sliding	-4940
▁manage	-4941
▁equipment	-4942
▁laid	-4943
etch	-4944
Not	-4945
▁lick	-4946
▁admiring	-4947
▁watered	-4948
cious	-4949
▁satis	-4950
▁contain	-4951
▁oper	-4952
▁bricks	-4953
▁Fro	-4954
oved	-4955
▁twigs	-4956
rr	-4957
▁patterns	-4958
▁kindly	-4959
▁petted	-4960
▁skipping	-4961
▁seats	-4962
▁potatoes	-4963
bers	-4964
▁soldiers	-4965
▁Nina	-4966
eed	-4967
▁gloves	-4968
▁spaces	-4969
zag	-4970
▁Sund	-4971
joyed	-4972
▁receive	-4973
▁keeper	-4974
▁copper	-4975
▁Luna	-4976
▁emer	-4977
▁slice	-4978
▁lets	-4979
▁Sunday	-4980
▁gain	-4981
▁continue	-4982
▁ordered	-4983
▁strangers	-4984
▁Thom	-4985
walk	-4986
▁overjoyed	-4987
▁watches	-4988
▁gotten	-4989
▁pigs	-4990
▁zipped	-4991
mother	-4992
▁lands	-4993
▁whistling	-4994
▁gaz	-4995
▁beside	-4996
œThank	-4997
▁safari	-4998
▁beg	-4999
▁prayed	-5000
▁Ad	-5001
▁peered	-5002
▁network	-5003
bbled	-5004
▁spit	-5005
▁eff	-5006
▁invitation	-5007
▁marching	-5008
▁Moral	-5009
▁ours	-5010
▁Not	-5011
ases	-5012
▁glitter	-5013
▁wooden	-5014
▁earthqu	-5015
▁Thomas	-5016
▁sidewalk	-5017
▁eagle	-5018
igzag	-5019
▁doggy	-5020
▁drinks	-5021
▁grocery	-5022
irp	-5023
▁weight	-5024
▁navy	-5025
▁acorns	-5026
▁attached	-5027
▁Julie	-5028
▁Josh	-5029
▁raised	-5030
▁disagreed	-5031
▁weren	-5032
Yum	-5033
▁Chl	-5034
▁Letâ	-5035
▁Suzy	-5036
▁beat	-5037
▁company	-5038
▁Uncle	-5039
▁mister	-5040
▁burning	-5041
▁Sunny	-5042
fy	-5043
▁onwards	-5044
hest	-5045
",	-5046
▁wre	-5047
▁happiest	-5048
▁racing	-5049
▁brid	-5050
▁crashed	-5051
▁fed	-5052
▁Chloe	-5053
▁spoons	-5054
▁crunchy	-5055
▁Kay	-5056
▁Sharing	-5057
▁peanuts	-5058
▁whistled	-5059
▁price	-5060
▁Sure	-5061
seek	-5062
▁meow	-5063
▁hurried	-5064
▁hist	-5065
▁officer	-5066
Ouch	-5067
▁brick	-5068
▁accom	-5069
▁tremb	-5070
▁refreshed	-5071
▁pies	-5072
▁remem	-5073
▁flap	-5074
▁works	-5075
nie	-5076
▁clearing	-5077
▁operation	-5078
▁prepared	-5079
▁bowed	-5080
▁remembers	-5081
▁scratched	-5082
▁history	-5083
▁exa	-5084
Will	-5085
aded	-5086
▁lips	-5087
▁prune	-5088
▁fireworks	-5089
amb	-5090
œWe	-5091
Really	-5092
▁escaped	-5093
▁dinosaurs	-5094
▁menu	-5095
▁bridges	-5096
▁talent	-5097
▁planted	-5098
▁Am	-5099
▁Nut	-5100
▁buildings	-5101
▁revealed	-5102
▁easier	-5103
▁bye	-5104
▁turning	-5105
▁Pr	-5106
▁comfy	-5107
▁olive	-5108
▁screams	-5109
▁brand	-5110
▁hated	-5111
▁chat	-5112
▁selling	-5113
▁snowball	-5114
die	-5115
▁recognized	-5116
▁An	-5117
▁warn	-5118
▁accompl	-5119
▁crept	-5120
▁precious	-5121
▁landsc	-5122
▁Sadly	-5123
▁strip	-5124
▁padd	-5125
▁muddy	-5126
▁By	-5127
▁wid	-5128
▁drinking	-5129
▁Jamie	-5130
▁sings	-5131
xygen	-5132
▁beds	-5133
▁pupp	-5134
▁Chirp	-5135
ecture	-5136
▁settle	-5137
▁earthquake	-5138
▁simple	-5139
cc	-5140
▁effort	-5141
▁reminder	-5142
▁spaceship	-5143
▁measuring	-5144
▁slip	-5145
▁perched	-5146
▁lecture	-5147
▁bones	-5148
▁served	-5149
▁Cla	-5150
▁appear	-5151
▁wonders	-5152
▁shadows	-5153
▁waits	-5154
▁voices	-5155
œCan	-5156
▁Ol	-5157
▁cuddle	-5158
▁pedal	-5159
▁everyday	-5160
▁pitch	-5161
▁comforted	-5162
▁agreement	-5163
▁responsible	-5164
▁circus	-5165
▁rained	-5166
▁Lu	-5167
▁vel	-5168
▁obey	-5169
ffic	-5170
▁vict	-5171
▁tip	-5172
▁soared	-5173
▁allow	-5174
▁anytime	-5175
▁trapped	-5176
▁cal	-5177
▁whatever	-5178
▁zigzag	-5179
▁tastes	-5180
▁apologize	-5181
▁landscape	-5182
▁cutting	-5183
▁succeeded	-5184
▁shopping	-5185
▁Mad	-5186
▁pets	-5187
▁rang	-5188
▁secrets	-5189
▁villag	-5190
▁Pip	-5191
anny	-5192
▁velvet	-5193
▁printer	-5194
▁disturbed	-5195
▁waist	-5196
▁3-	-5197
▁items	-5198
▁swims	-5199
▁bun	-5200
▁traffic	-5201
▁practicing	-5202
▁steel	-5203
▁oats	-5204
▁bringing	-5205
▁Anne	-5206
▁exactly	-5207
▁sisters	-5208
To	-5209
▁rested	-5210
▁visiting	-5211
▁Rob	-5212
▁Hanna	-5213
▁activ	-5214
▁costumes	-5215
▁scoop	-5216
▁answers	-5217
izing	-5218
▁olives	-5219
ien	-5220
mble	-5221
▁brushed	-5222
▁style	-5223
▁mouths	-5224
▁Big	-5225
▁Ke	-5226
▁soak	-5227
▁bene	-5228
▁curiosity	-5229
▁For	-5230
ishes	-5231
▁outdo	-5232
neath	-5233
▁breaking	-5234
▁fashion	-5235
▁rele	-5236
▁ladyb	-5237
▁owned	-5238
▁encourage	-5239
œDon	-5240
▁Coco	-5241
▁knelt	-5242
▁fascinated	-5243
▁leather	-5244
mare	-5245
▁image	-5246
▁Claire	-5247
iggy	-5248
▁villagers	-5249
oming	-5250
▁beneath	-5251
icorn	-5252
▁nails	-5253
▁underground	-5254
▁waffles	-5255
▁unicorn	-5256
▁sadness	-5257
▁Lucky	-5258
▁These	-5259
enty	-5260
▁Itâ	-5261
▁Floppy	-5262
terday	-5263
▁unlocked	-5264
inda	-5265
▁died	-5266
▁recognize	-5267
▁downstairs	-5268
▁creation	-5269
▁catching	-5270
▁grandmother	-5271
▁oxygen	-5272
isten	-5273
▁monsters	-5274
▁Gr	-5275
▁tremble	-5276
▁chef	-5277
▁eats	-5278
▁Nutty	-5279
▁pupil	-5280
ik	-5281
One	-5282
▁wanting	-5283
▁nightmare	-5284
▁jogged	-5285
▁cape	-5286
▁stripes	-5287
▁Rabbit	-5288
▁doctors	-5289
▁soaring	-5290
▁blueberry	-5291
▁Something	-5292
▁Ow	-5293
ley	-5294
Spot	-5295
▁lemons	-5296
▁struggled	-5297
▁Tiny	-5298
rs	-5299
▁bleeding	-5300
▁wondering	-5301
▁punished	-5302
▁Betty	-5303
▁gained	-5304
▁famil	-5305
▁Lul	-5306
▁Hop	-5307
▁fetch	-5308
▁examined	-5309
▁nicer	-5310
len	-5311
▁Jessie	-5312
▁guessed	-5313
▁planned	-5314
▁drag	-5315
▁caut	-5316
▁situ	-5317
▁machines	-5318
▁mission	-5319
▁stealing	-5320
▁argued	-5321
▁area	-5322
▁comple	-5323
▁piles	-5324
▁si	-5325
▁freeze	-5326
▁introduc	-5327
▁herbs	-5328
▁stirring	-5329
▁Tilly	-5330
▁ripped	-5331
▁Car	-5332
▁six	-5333
▁Carl	-5334
▁challenge	-5335
▁Adam	-5336
▁tugged	-5337
▁studied	-5338
▁firemen	-5339
She	-5340
▁bend	-5341
▁bare	-5342
▁wagging	-5343
▁zooming	-5344
▁accidents	-5345
▁victory	-5346
▁satisfied	-5347
▁wreck	-5348
Daddy	-5349
▁Hannah	-5350
▁instruct	-5351
▁properly	-5352
▁keys	-5353
▁winning	-5354
▁shivering	-5355
looking	-5356
▁bunnies	-5357
▁increase	-5358
agull	-5359
ding	-5360
▁tune	-5361
▁gathering	-5362
▁mice	-5363
Or	-5364
▁exit	-5365
▁firefight	-5366
▁outdoors	-5367
▁Yes	-5368
▁winner	-5369
▁twirling	-5370
▁loaded	-5371
▁slapped	-5372
▁teasing	-5373
▁peel	-5374
▁decorated	-5375
xu	-5376
▁deser	-5377
▁supplies	-5378
▁Lulu	-5379
▁yelling	-5380
▁une	-5381
▁neighbourhood	-5382
▁seagull	-5383
▁underneath	-5384
▁permit	-5385
▁sights	-5386
▁Aunt	-5387
▁Matt	-5388
▁tickets	-5389
▁ann	-5390
▁Chirpy	-5391
▁pancakes	-5392
▁begin	-5393
▁burrow	-5394
▁pearl	-5395
▁Abby	-5396
▁rides	-5397
▁siren	-5398
▁peaches	-5399
▁Sl	-5400
▁mixing	-5401
▁Susan	-5402
▁released	-5403
▁draws	-5404
▁weighed	-5405
aky	-5406
▁sneaked	-5407
▁Bubbles	-5408
ica	-5409
uxu	-5410
Mama	-5411
indy	-5412
.'	-5413
▁confident	-5414
▁realize	-5415
▁instructions	-5416
ales	-5417
▁spiders	-5418
▁introduce	-5419
▁luxu	-5420
▁dam	-5421
▁muffins	-5422
▁contro	-5423
▁letâ	-5424
▁pinched	-5425
▁budge	-5426
▁solut	-5427
▁zero	-5428
▁competition	-5429
▁printed	-5430
▁studying	-5431
▁Out	-5432
▁Did	-5433
▁loving	-5434
▁beha	-5435
▁inch	-5436
▁pockets	-5437
▁baked	-5438
▁struck	-5439
œLook	-5440
▁shoulders	-5441
▁bunch	-5442
▁opin	-5443
▁Like	-5444
▁lines	-5445
▁frosting	-5446
▁release	-5447
Goodbye	-5448
▁decides	-5449
▁giggling	-5450
▁broom	-5451
▁ourselves	-5452
▁web	-5453
▁pastel	-5454
Happy	-5455
▁travell	-5456
▁cones	-5457
▁Mir	-5458
▁stamps	-5459
nes	-5460
▁emergen	-5461
œHello	-5462
▁stair	-5463
▁stitch	-5464
bbing	-5465
▁Stop	-5466
▁prunes	-5467
▁Mart	-5468
▁ladybug	-5469
▁sides	-5470
ena	-5471
oed	-5472
▁grant	-5473
▁scurried	-5474
€”	-5475
▁strings	-5476
▁tim	-5477
ais	-5478
▁marks	-5479
▁ruler	-5480
▁pears	-5481
gers	-5482
▁Wed	-5483
nesday	-5484
▁repeated	-5485
▁drift	-5486
▁keeps	-5487
▁ago	-5488
▁claps	-5489
Ex	-5490
▁poking	-5491
▁Wednesday	-5492
anta	-5493
œThis	-5494
Ye	-5495
ays	-5496
▁crowd	-5497
▁Bir	-5498
▁ruin	-5499
▁Lou	-5500
▁prints	-5501
kins	-5502
▁brushes	-5503
▁kicking	-5504
▁stretching	-5505
▁demanded	-5506
▁sting	-5507
▁neighbors	-5508
▁mentioned	-5509
owers	-5510
▁mast	-5511
▁touching	-5512
▁tonight	-5513
▁protected	-5514
▁writes	-5515
▁sweeties	-5516
xp	-5517
▁Linda	-5518
▁Ju	-5519
▁goodnight	-5520
Joh	-5521
▁Zoom	-5522
uesday	-5523
▁Luke	-5524
▁youth	-5525
▁buckets	-5526
▁Jeff	-5527
▁Santa	-5528
▁ribbons	-5529
va	-5530
jam	-5531
uctantly	-5532
tiest	-5533
▁Tuesday	-5534
bies	-5535
ashed	-5536
▁prettiest	-5537
ody	-5538
▁forgi	-5539
▁vent	-5540
▁parked	-5541
icky	-5542
▁project	-5543
▁camping	-5544
▁soaked	-5545
zie	-5546
▁barely	-5547
▁horns	-5548
▁bouncy	-5549
icked	-5550
▁Both	-5551
riage	-5552
hins	-5553
▁discovering	-5554
œDonâ	-5555
▁east	-5556
▁Momo	-5557
▁twinkling	-5558
▁result	-5559
▁expect	-5560
▁surface	-5561
▁sorting	-5562
▁dent	-5563
▁stole	-5564
œWhy	-5565
▁west	-5566
▁interest	-5567
▁vowed	-5568
▁Kayla	-5569
▁texture	-5570
▁gazed	-5571
Ah	-5572
▁purred	-5573
▁guys	-5574
▁steep	-5575
▁babies	-5576
▁Afterwards	-5577
▁shock	-5578
▁beard	-5579
▁movies	-5580
▁cautious	-5581
xpected	-5582
zen	-5583
▁powers	-5584
▁applauded	-5585
▁1	-5586
▁silence	-5587
▁Hoppy	-5588
thank	-5589
▁pebbles	-5590
▁entire	-5591
▁loose	-5592
▁control	-5593
▁tickle	-5594
▁guns	-5595
▁urged	-5596
▁dragons	-5597
▁acted	-5598
▁dragged	-5599
▁luxury	-5600
▁unexpected	-5601
▁catches	-5602
Uh	-5603
edding	-5604
ason	-5605
ern	-5606
▁mittens	-5607
▁muscles	-5608
▁Lizzy	-5609
▁chewing	-5610
▁rocking	-5611
▁flat	-5612
▁fab	-5613
▁fabric	-5614
▁dolphins	-5615
▁completed	-5616
▁curtains	-5617
▁emergency	-5618
▁blink	-5619
Mia	-5620
▁introduced	-5621
▁Jenna	-5622
▁direction	-5623
une	-5624
▁chips	-5625
▁honk	-5626
▁Cindy	-5627
▁season	-5628
▁strike	-5629
▁patience	-5630
▁importance	-5631
▁Ha	-5632
eezing	-5633
▁Suzie	-5634
▁reluctantly	-5635
▁bank	-5636
▁eight	-5637
▁slim	-5638
usted	-5639
▁figured	-5640
▁highest	-5641
▁shivered	-5642
▁frozen	-5643
▁solution	-5644
▁librarian	-5645
▁contest	-5646
▁rocked	-5647
▁achieve	-5648
▁screaming	-5649
▁chases	-5650
Mum	-5651
▁replac	-5652
▁pouring	-5653
▁shelves	-5654
▁wound	-5655
▁theirs	-5656
▁crumb	-5657
▁rubbing	-5658
esome	-5659
▁ti	-5660
▁drives	-5661
▁hugging	-5662
▁staring	-5663
▁sorted	-5664
Remember	-5665
▁snail	-5666
▁roaring	-5667
John	-5668
œOh	-5669
▁Lena	-5670
ledge	-5671
▁include	-5672
▁planets	-5673
Somet	-5674
▁Jac	-5675
ateri	-5676
▁materi	-5677
▁safer	-5678
▁policeman	-5679
▁Dolly	-5680
fit	-5681
▁curly	-5682
▁situation	-5683
▁foods	-5684
▁greet	-5685
▁awesome	-5686
▁canâ	-5687
▁usual	-5688
vin	-5689
▁sighs	-5690
▁knowledge	-5691
itely	-5692
irts	-5693
Mummy	-5694
▁passing	-5695
▁shined	-5696
▁Jon	-5697
Al	-5698
▁flags	-5699
▁exha	-5700
▁dared	-5701
▁balancing	-5702
▁plenty	-5703
▁tru	-5704
▁youâ	-5705
▁matched	-5706
▁towels	-5707
▁lied	-5708
ults	-5709
▁homework	-5710
though	-5711
▁outfit	-5712
▁slimy	-5713
▁bravery	-5714
Gra	-5715
▁truly	-5716
▁pretends	-5717
▁zookeeper	-5718
avi	-5719
▁cheering	-5720
▁heel	-5721
▁wedding	-5722
▁goals	-5723
▁rainbows	-5724
jamas	-5725
▁sausages	-5726
cuse	-5727
▁threat	-5728
▁accomplish	-5729
▁patted	-5730
▁caused	-5731
▁paintings	-5732
Just	-5733
▁Slow	-5734
▁reaching	-5735
▁Tara	-5736
▁Mira	-5737
▁resting	-5738
▁Always	-5739
▁Pinky	-5740
▁Jacob	-5741
▁radishes	-5742
▁arguing	-5743
▁Mon	-5744
▁Mil	-5745
...	-5746
▁Quack	-5747
▁packing	-5748
Excuse	-5749
bert	-5750
▁growling	-5751
▁blooming	-5752
▁spraying	-5753
▁ge	-5754
▁waiter	-5755
▁exhausted	-5756
iar	-5757
▁Two	-5758
▁struggle	-5759
izzie	-5760
▁sweets	-5761
▁sticking	-5762
ences	-5763
▁pout	-5764
▁motion	-5765
▁worker	-5766
▁markers	-5767
▁kneeled	-5768
▁paddled	-5769
▁growl	-5770
▁sled	-5771
▁Mick	-5772
immer	-5773
▁suitc	-5774
▁Ex	-5775
▁mane	-5776
▁sway	-5777
▁snugg	-5778
▁startled	-5779
▁cubes	-5780
▁rescued	-5781
▁boo	-5782
▁spike	-5783
▁written	-5784
▁dusty	-5785
▁Lizzie	-5786
▁traveled	-5787
▁inviting	-5788
hello	-5789
▁expected	-5790
▁slap	-5791
▁bead	-5792
▁cuts	-5793
▁cent	-5794
▁Jessica	-5795
▁matching	-5796
▁guest	-5797
▁bottles	-5798
▁flavor	-5799
▁singer	-5800
▁reveal	-5801
▁learns	-5802
▁heav	-5803
lee	-5804
▁princesses	-5805
▁Julia	-5806
▁creating	-5807
▁regretted	-5808
▁fart	-5809
Yeah	-5810
▁bloomed	-5811
▁trembling	-5812
▁replaced	-5813
▁fir	-5814
▁arrive	-5815
▁marriage	-5816
you	-5817
pite	-5818
aisies	-5819
▁recorded	-5820
▁pencils	-5821
▁included	-5822
▁lap	-5823
▁chuck	-5824
▁disagree	-5825
▁observed	-5826
njoy	-5827
▁Pipp	-5828
▁pots	-5829
▁daisies	-5830
▁activities	-5831
When	-5832
▁prayer	-5833
▁firm	-5834
▁timer	-5835
▁Mo	-5836
▁pajamas	-5837
▁roads	-5838
▁wires	-5839
▁removed	-5840
▁uses	-5841
▁worries	-5842
▁darkness	-5843
▁ventured	-5844
▁countryside	-5845
▁organizing	-5846
▁stare	-5847
▁completely	-5848
▁workers	-5849
▁opening	-5850
▁fairies	-5851
▁relief	-5852
angled	-5853
▁wasted	-5854
▁leap	-5855
▁reply	-5856
▁owners	-5857
▁storekeeper	-5858
▁cott	-5859
▁belly	-5860
▁ranger	-5861
vers	-5862
▁fault	-5863
▁Johnson	-5864
▁Fox	-5865
▁partic	-5866
▁Mel	-5867
▁unf	-5868
▁quacked	-5869
▁polishing	-5870
▁leader	-5871
▁stern	-5872
ora	-5873
iding	-5874
▁Friend	-5875
▁becoming	-5876
▁flames	-5877
▁lamb	-5878
▁Slowly	-5879
▁kites	-5880
ctions	-5881
▁agrees	-5882
▁poems	-5883
▁Christ	-5884
▁penguins	-5885
▁wasnâ	-5886
▁Nan	-5887
▁faced	-5888
▁seesaw	-5889
▁everybody	-5890
▁Y	-5891
Sometimes	-5892
▁folding	-5893
▁melting	-5894
▁squealed	-5895
▁thro	-5896
▁healed	-5897
▁scales	-5898
▁vanish	-5899
▁helmets	-5900
▁Jones	-5901
▁Larry	-5902
▁wink	-5903
▁logs	-5904
▁crabs	-5905
▁throat	-5906
ords	-5907
hell	-5908
▁Leave	-5909
▁opinion	-5910
▁usually	-5911
▁crumbs	-5912
▁tractor	-5913
▁ripe	-5914
▁dipped	-5915
lings	-5916
▁Follow	-5917
▁scra	-5918
opes	-5919
▁seems	-5920
▁ast	-5921
▁twinkle	-5922
▁lollipops	-5923
▁cash	-5924
▁risk	-5925
▁Bye	-5926
▁teaches	-5927
▁comm	-5928
▁groceries	-5929
▁den	-5930
▁knights	-5931
ivery	-5932
asm	-5933
▁dentist	-5934
▁provided	-5935
▁valued	-5936
▁polished	-5937
▁staying	-5938
ids	-5939
elle	-5940
▁peeking	-5941
aze	-5942
Jack	-5943
▁snakes	-5944
▁scru	-5945
▁interested	-5946
▁Watch	-5947
▁blows	-5948
▁rubs	-5949
▁cautiously	-5950
▁Put	-5951
▁cracked	-5952
▁united	-5953
▁rings	-5954
araway	-5955
▁Lau	-5956
▁faraway	-5957
▁desert	-5958
▁Sorry	-5959
▁misses	-5960
▁winked	-5961
▁protecting	-5962
▁freed	-5963
▁marked	-5964
▁Sophia	-5965
▁Bird	-5966
▁younger	-5967
▁Many	-5968
▁wrist	-5969
▁closes	-5970
▁wandering	-5971
mas	-5972
▁balanced	-5973
▁chuckled	-5974
▁fuzzy	-5975
▁listens	-5976
▁forehead	-5977
▁pastries	-5978
▁single	-5979
▁signed	-5980
go	-5981
▁robb	-5982
▁June	-5983
▁particular	-5984
▁beads	-5985
▁Doggy	-5986
▁roses	-5987
boo	-5988
▁boom	-5989
▁actions	-5990
▁directions	-5991
▁however	-5992
œMommy	-5993
▁copy	-5994
igi	-5995
▁cough	-5996
▁splashes	-5997
▁Bess	-5998
rance	-5999
▁crackers	-6000
▁El	-6001
▁baker	-6002
▁naps	-6003
▁cous	-6004
▁Happy	-6005
▁roots	-6006
ppers	-6007
▁Prin	-6008
▁Without	-6009
▁filling	-6010
hile	-6011
▁yesterday	-6012
▁snowballs	-6013
œWhatâ	-6014
▁restored	-6015
▁fluttered	-6016
▁delivery	-6017
abel	-6018
arling	-6019
▁rolls	-6020
▁conn	-6021
▁stem	-6022
▁swooped	-6023
dies	-6024
▁gaze	-6025
▁suitcase	-6026
▁Abbie	-6027
▁wiggled	-6028
▁tipt	-6029
▁somebody	-6030
▁Christmas	-6031
▁sweat	-6032
▁Laura	-6033
Bad	-6034
▁bumpy	-6035
▁itchy	-6036
bbly	-6037
▁refle	-6038
▁Everybody	-6039
Tommy	-6040
▁slam	-6041
▁swirl	-6042
▁̃	-6043
▁photos	-6044
▁Gigi	-6045
▁Pam	-6046
oline	-6047
▁stroll	-6048
▁twin	-6049
▁pastels	-6050
▁celebration	-6051
▁trips	-6052
▁pedals	-6053
Then	-6054
▁backed	-6055
▁tallest	-6056
▁Keep	-6057
▁Mickey	-6058
▁Nothing	-6059
▁awake	-6060
▁froze	-6061
▁cause	-6062
▁cashier	-6063
ddled	-6064
▁nect	-6065
▁remote	-6066
▁lined	-6067
▁darker	-6068
▁determination	-6069
▁Nick	-6070
▁nectar	-6071
ility	-6072
▁speaking	-6073
▁Sparky	-6074
▁secure	-6075
ormed	-6076
▁knees	-6077
▁wow	-6078
anes	-6079
▁Sque	-6080
▁piggy	-6081
▁complaining	-6082
▁bars	-6083
▁Being	-6084
▁recording	-6085
▁sneaky	-6086
▁Jazz	-6087
▁Pandy	-6088
▁silent	-6089
▁videos	-6090
oys	-6091
▁health	-6092
▁accomplishment	-6093
Run	-6094
▁liqu	-6095
▁pleasure	-6096
▁acting	-6097
?",	-6098
▁Exc	-6099
▁entrance	-6100
▁ty	-6101
atches	-6102
▁wears	-6103
▁rockets	-6104
▁Ma	-6105
▁delivered	-6106
▁miles	-6107
▁glee	-6108
▁insp	-6109
▁hi	-6110
esmer	-6111
▁coloured	-6112
▁opp	-6113
▁Emmy	-6114
▁Enjoy	-6115
▁tricked	-6116
▁mesmer	-6117
sequ	-6118
boat	-6119
▁Jay	-6120
▁cheeks	-6121
yond	-6122
▁aff	-6123
▁beyond	-6124
▁afterwards	-6125
▁noon	-6126
▁sib	-6127
▁consequ	-6128
▁stays	-6129
▁hissed	-6130
▁Stella	-6131
▁insects	-6132
▁glasses	-6133
ky	-6134
▁bowls	-6135
umm	-6136
▁joking	-6137
▁Excited	-6138
▁sobbed	-6139
▁farther	-6140
▁tickled	-6141
▁Mikey	-6142
▁burst	-6143
▁colored	-6144
affes	-6145
▁scaring	-6146
▁Days	-6147
▁Buzzy	-6148
▁stolen	-6149
Fine	-6150
▁Bee	-6151
▁attack	-6152
▁sense	-6153
▁sandcastles	-6154
▁tricky	-6155
▁rule	-6156
▁Milo	-6157
▁masks	-6158
▁covers	-6159
iki	-6160
▁deal	-6161
▁instrum	-6162
▁giraffes	-6163
œCome	-6164
▁calmed	-6165
▁handful	-6166
?'	-6167
▁Squ	-6168
▁talented	-6169
arter	-6170
▁pause	-6171
▁indeed	-6172
▁tangled	-6173
▁adding	-6174
▁smarter	-6175
▁candies	-6176
▁scarves	-6177
ths	-6178
▁lung	-6179
▁shirts	-6180
▁achieved	-6181
▁choices	-6182
▁Robert	-6183
▁Princess	-6184
▁consequences	-6185
▁liquid	-6186
ossible	-6187
▁Chris	-6188
▁yourselves	-6189
rious	-6190
▁bumps	-6191
▁behavi	-6192
▁leading	-6193
weet	-6194
▁Maya	-6195
▁Robbie	-6196
▁Els	-6197
▁reads	-6198
choo	-6199
igers	-6200
▁batteries	-6201
▁hesitated	-6202
▁impossible	-6203
▁badge	-6204
ept	-6205
▁mi	-6206
aren	-6207
▁paddle	-6208
▁mixture	-6209
▁Get	-6210
▁explorers	-6211
▁darling	-6212
iled	-6213
▁magnets	-6214
▁Tess	-6215
▁Olive	-6216
ouch	-6217
▁Ry	-6218
▁clowns	-6219
▁kicks	-6220
▁Robby	-6221
Shh	-6222
▁recommended	-6223
▁Snugg	-6224
▁weeping	-6225
▁gracefully	-6226
▁experien	-6227
ners	-6228
▁seashell	-6229
▁seeker	-6230
▁Zip	-6231
▁bakery	-6232
Ro	-6233
▁firefighters	-6234
anging	-6235
vest	-6236
brush	-6237
▁salty	-6238
▁improved	-6239
▁swept	-6240
▁Martha	-6241
rig	-6242
atul	-6243
coat	-6244
▁deserve	-6245
▁stroked	-6246
▁wipes	-6247
▁flapping	-6248
▁beginning	-6249
▁Karen	-6250
▁complained	-6251
Whe	-6252
urry	-6253
Those	-6254
▁mushrooms	-6255
▁Pl	-6256
▁Po	-6257
▁hider	-6258
obody	-6259
▁Granny	-6260
itches	-6261
▁steer	-6262
▁knocks	-6263
▁cust	-6264
▁seven	-6265
▁thorn	-6266
▁cans	-6267
▁teased	-6268
▁Snuggles	-6269
▁objects	-6270
▁parties	-6271
œDo	-6272
▁travelled	-6273
▁Cu	-6274
▁third	-6275
▁hearing	-6276
▁basement	-6277
▁tigers	-6278
▁cupcakes	-6279
▁horiz	-6280
▁click	-6281
œYouâ	-6282
▁Dr	-6283
▁Sc	-6284
▁Rock	-6285
▁fever	-6286
▁snuck	-6287
▁heading	-6288
tle	-6289
▁Ryan	-6290
▁seconds	-6291
▁dots	-6292
▁raincoat	-6293
▁Abi	-6294
▁horizon	-6295
▁siblings	-6296
elia	-6297
no	-6298
▁custom	-6299
▁smiley	-6300
▁performance	-6301
▁Mabel	-6302
▁artist	-6303
▁hallway	-6304
▁beam	-6305
▁marker	-6306
▁snatched	-6307
▁Che	-6308
▁Thanks	-6309
▁lighter	-6310
▁yells	-6311
▁jackets	-6312
▁fluttering	-6313
indr	-6314
▁drums	-6315
œHi	-6316
step	-6317
ans	-6318
pare	-6319
▁ruining	-6320
▁gems	-6321
▁bedtime	-6322
igning	-6323
▁Jacky	-6324
Next	-6325
▁Water	-6326
▁wouldnâ	-6327
iles	-6328
▁raindr	-6329
▁wee	-6330
▁neither	-6331
▁concer	-6332
▁buying	-6333
▁Along	-6334
rigued	-6335
▁puppies	-6336
▁paying	-6337
▁lett	-6338
▁scrubbed	-6339
▁families	-6340
▁celebrating	-6341
▁Finn	-6342
▁dollhouse	-6343
▁annoy	-6344
œWow	-6345
▁Janie	-6346
▁creamy	-6347
band	-6348
▁among	-6349
▁lettuce	-6350
umbling	-6351
▁peacefully	-6352
▁Sim	-6353
▁rivers	-6354
▁scratches	-6355
▁wrapping	-6356
river	-6357
▁drifted	-6358
▁widened	-6359
▁rumble	-6360
▁tasks	-6361
atur	-6362
ivity	-6363
ades	-6364
▁treehouse	-6365
▁hides	-6366
▁wins	-6367
▁repa	-6368
▁behaved	-6369
cers	-6370
▁rusty	-6371
alph	-6372
▁wonâ	-6373
▁players	-6374
▁lun	-6375
uzz	-6376
▁cuddly	-6377
immering	-6378
ael	-6379
fall	-6380
▁uns	-6381
▁fact	-6382
Ch	-6383
ounce	-6384
▁arrows	-6385
▁rewarded	-6386
▁willing	-6387
▁lower	-6388
▁needles	-6389
▁source	-6390
▁shrinking	-6391
▁creativity	-6392
▁Rover	-6393
▁losing	-6394
▁temper	-6395
▁cor	-6396
▁ech	-6397
▁repaired	-6398
▁passen	-6399
▁fears	-6400
iece	-6401
▁grandpare	-6402
▁including	-6403
▁Binky	-6404
▁choo	-6405
▁Ralph	-6406
▁tiptoed	-6407
▁Gina	-6408
itched	-6409
▁Kiki	-6410
▁creations	-6411
▁Jackie	-6412
▁tapped	-6413
▁Goodbye	-6414
▁grassy	-6415
ongr	-6416
▁chefs	-6417
▁def	-6418
ded	-6419
▁minerals	-6420
▁separated	-6421
▁Maddie	-6422
▁sprinkled	-6423
jo	-6424
▁rising	-6425
▁imagining	-6426
oey	-6427
▁granted	-6428
ichael	-6429
▁Sadie	-6430
▁aud	-6431
▁gross	-6432
▁chop	-6433
▁tempt	-6434
▁During	-6435
▁aren	-6436
▁swimsuit	-6437
ongratul	-6438
Great	-6439
▁pans	-6440
▁tiss	-6441
▁Remember	-6442
▁limes	-6443
cus	-6444
hog	-6445
▁stomped	-6446
▁screwd	-6447
▁Michael	-6448
▁coup	-6449
▁Nobody	-6450
▁grabbing	-6451
▁Judy	-6452
▁pouted	-6453
▁backwards	-6454
▁spong	-6455
itude	-6456
▁decorating	-6457
œMy	-6458
▁damage	-6459
ishy	-6460
▁hesitant	-6461
▁earn	-6462
▁printing	-6463
▁peppers	-6464
▁stung	-6465
▁squares	-6466
▁unpacked	-6467
Have	-6468
ments	-6469
▁tramp	-6470
cl	-6471
ntil	-6472
▁slower	-6473
▁cowb	-6474
▁diving	-6475
▁planning	-6476
Time	-6477
▁beloved	-6478
▁Simon	-6479
pr	-6480
▁onions	-6481
▁Marie	-6482
▁materials	-6483
▁Q	-6484
▁heavier	-6485
▁Cra	-6486
▁chip	-6487
▁growls	-6488
▁raindrops	-6489
▁wrink	-6490
▁mer	-6491
▁Until	-6492
▁pointy	-6493
▁Squeaky	-6494
▁Bluey	-6495
▁snowmen	-6496
▁Flop	-6497
cope	-6498
▁surroundings	-6499
▁promises	-6500
▁avoid	-6501
▁screwdriver	-6502
▁Todd	-6503
▁Since	-6504
▁recipe	-6505
▁audience	-6506
▁cousin	-6507
▁sailboat	-6508
Meow	-6509
▁Far	-6510
▁forgiven	-6511
▁rustling	-6512
▁neighbours	-6513
▁blocking	-6514
▁hus	-6515
▁center	-6516
Yummy	-6517
kend	-6518
▁slices	-6519
▁gobbled	-6520
Today	-6521
▁wiping	-6522
▁weekend	-6523
▁temperature	-6524
eds	-6525
▁touc	-6526
▁hedgehog	-6527
▁trampoline	-6528
ueen	-6529
▁Earth	-6530
▁refu	-6531
▁arr	-6532
▁helpers	-6533
ably	-6534
▁Lia	-6535
▁wobbled	-6536
▁rip	-6537
▁windy	-6538
▁couple	-6539
yes	-6540
▁stool	-6541
▁discussed	-6542
sty	-6543
▁designed	-6544
▁ornaments	-6545
▁dreamt	-6546
Oops	-6547
itted	-6548
▁noses	-6549
▁corners	-6550
child	-6551
▁pecked	-6552
▁slammed	-6553
Lila	-6554
int	-6555
unched	-6556
▁swans	-6557
▁afford	-6558
iley	-6559
Ew	-6560
▁feast	-6561
▁sports	-6562
▁hitting	-6563
Roar	-6564
▁age	-6565
▁streets	-6566
▁wag	-6567
▁tissue	-6568
▁Zara	-6569
▁dads	-6570
▁ache	-6571
▁aside	-6572
ccoon	-6573
▁sponge	-6574
▁raccoon	-6575
▁stain	-6576
▁requested	-6577
▁Back	-6578
▁meals	-6579
Le	-6580
▁curiously	-6581
▁forks	-6582
▁reflection	-6583
▁sunflowers	-6584
▁snowfl	-6585
▁Zoey	-6586
▁warnings	-6587
▁tails	-6588
arrow	-6589
Rex	-6590
▁dances	-6591
▁prett	-6592
▁plans	-6593
ido	-6594
▁Queen	-6595
▁bows	-6596
▁vanilla	-6597
cky	-6598
▁shaped	-6599
▁familiar	-6600
▁sparks	-6601
▁Although	-6602
▁det	-6603
▁gri	-6604
▁leaning	-6605
▁dollars	-6606
▁Those	-6607
▁coloring	-6608
▁remembering	-6609
▁adult	-6610
▁Ash	-6611
▁breathed	-6612
▁greeted	-6613
▁intrigued	-6614
▁sale	-6615
▁grandchild	-6616
▁screws	-6617
ition	-6618
▁duckling	-6619
▁forgets	-6620
▁spreading	-6621
osen	-6622
▁gasp	-6623
▁astron	-6624
▁chosen	-6625
▁shops	-6626
▁thrown	-6627
▁Amelia	-6628
▁prettier	-6629
▁twice	-6630
▁praying	-6631
▁Hoot	-6632
▁tunnels	-6633
aker	-6634
▁hour	-6635
▁potion	-6636
▁enthusi	-6637
Grandma	-6638
▁touches	-6639
▁astronaut	-6640
--	-6641
▁swords	-6642
▁enthusiasm	-6643
▁husband	-6644
arac	-6645
▁Our	-6646
ertain	-6647
▁sailors	-6648
▁gardener	-6649
endy	-6650
▁moo	-6651
otten	-6652
▁hops	-6653
▁zipping	-6654
▁spikes	-6655
▁corre	-6656
▁superheroes	-6657
▁reason	-6658
▁Fu	-6659
▁wishing	-6660
▁magician	-6661
▁daring	-6662
▁spoonful	-6663
▁grandparents	-6664
▁least	-6665
shions	-6666
arshm	-6667
▁skunk	-6668
▁reass	-6669
arshmallow	-6670
▁Fido	-6671
▁Friends	-6672
▁changing	-6673
▁dod	-6674
▁borrowed	-6675
▁Meg	-6676
▁todd	-6677
▁scamp	-6678
▁counts	-6679
▁flight	-6680
▁forgetting	-6681
▁pens	-6682
▁rotten	-6683
▁bodies	-6684
▁encourag	-6685
▁10	-6686
▁Li	-6687
▁Davey	-6688
▁guests	-6689
▁flavors	-6690
Woof	-6691
▁hopeful	-6692
ently	-6693
▁Momma	-6694
▁neare	-6695
▁Star	-6696
▁woof	-6697
ounced	-6698
▁snuggle	-6699
▁mesmerized	-6700
▁sending	-6701
fly	-6702
▁heroes	-6703
aracter	-6704
▁character	-6705
▁muscle	-6706
▁Sun	-6707
stick	-6708
▁buzzed	-6709
▁neatly	-6710
▁seaw	-6711
▁grows	-6712
wk	-6713
▁Wendy	-6714
▁wraps	-6715
▁Listen	-6716
▁steady	-6717
Whee	-6718
▁poss	-6719
▁nibb	-6720
▁feeding	-6721
oni	-6722
▁De	-6723
▁handsome	-6724
▁marshmallow	-6725
▁cond	-6726
Our	-6727
▁mints	-6728
irrel	-6729
▁delivering	-6730
▁nine	-6731
▁oh	-6732
antha	-6733
llen	-6734
▁dived	-6735
▁Ali	-6736
bba	-6737
▁politely	-6738
▁zebras	-6739
▁Quick	-6740
▁onward	-6741
▁alien	-6742
▁suffering	-6743
▁Frog	-6744
▁warmer	-6745
the	-6746
▁napkins	-6747
Boo	-6748
years	-6749
▁Sof	-6750
▁sneezing	-6751
▁baths	-6752
▁honked	-6753
▁Samantha	-6754
▁defe	-6755
▁plain	-6756
▁plucked	-6757
▁crashing	-6758
▁Maddy	-6759
▁Under	-6760
▁matters	-6761
▁embarrass	-6762
▁poster	-6763
ection	-6764
▁thatâ	-6765
meal	-6766
▁lifts	-6767
▁Holly	-6768
▁refreshing	-6769
œMom	-6770
▁unsure	-6771
▁Birthday	-6772
▁lungs	-6773
▁seaweed	-6774
▁Ruth	-6775
▁Farmer	-6776
▁students	-6777
▁increased	-6778
▁crew	-6779
▁stands	-6780
▁joining	-6781
▁toddler	-6782
▁oatmeal	-6783
Some	-6784
▁scen	-6785
allowed	-6786
▁proper	-6787
▁preparing	-6788
▁swallowed	-6789
▁Des	-6790
▁dip	-6791
▁thud	-6792
▁glued	-6793
œBut	-6794
▁express	-6795
▁focu	-6796
▁Frosty	-6797
▁Bessie	-6798
▁whispers	-6799
▁respond	-6800
aster	-6801
▁watering	-6802
▁amount	-6803
▁Baa	-6804
▁die	-6805
▁ropes	-6806
▁toaster	-6807
▁performed	-6808
▁starfish	-6809
▁leads	-6810
▁trembled	-6811
▁presses	-6812
▁wobbly	-6813
▁triangles	-6814
▁hawk	-6815
▁lessons	-6816
▁cushions	-6817
▁biting	-6818
▁postman	-6819
▁Thatâ	-6820
▁geese	-6821
while	-6822
▁cau	-6823
œWell	-6824
▁Patch	-6825
▁dancers	-6826
▁pops	-6827
▁puff	-6828
▁talks	-6829
▁sniffs	-6830
▁focused	-6831
▁scraped	-6832
▁resisted	-6833
▁Love	-6834
▁merry	-6835
▁bully	-6836
▁adults	-6837
▁panicked	-6838
▁Mouse	-6839
▁confl	-6840
▁rushing	-6841
▁freedom	-6842
vant	-6843
▁flas	-6844
▁puppet	-6845
▁necklaces	-6846
▁Squirrel	-6847
▁slips	-6848
▁softer	-6849
▁Bubba	-6850
▁firmly	-6851
▁waddled	-6852
▁trot	-6853
iona	-6854
ados	-6855
▁Megan	-6856
▁joyful	-6857
▁firefly	-6858
▁encouraging	-6859
▁tested	-6860
▁wrigg	-6861
▁dropping	-6862
œWhere	-6863
▁drawers	-6864
▁frowning	-6865
▁tables	-6866
onna	-6867
▁waterfall	-6868
▁worn	-6869
▁wiggle	-6870
Bun	-6871
Lucy	-6872
▁ev	-6873
ippy	-6874
▁Mean	-6875
▁Ray	-6876
▁blast	-6877
▁nervously	-6878
▁Mina	-6879
▁faded	-6880
rey	-6881
▁lifting	-6882
bird	-6883
▁Only	-6884
▁scampered	-6885
▁rout	-6886
▁humans	-6887
▁drivers	-6888
▁spat	-6889
lets	-6890
▁explo	-6891
▁Ang	-6892
▁appreciation	-6893
cake	-6894
▁Honey	-6895
▁pours	-6896
▁robber	-6897
▁Freddie	-6898
▁firefighter	-6899
▁drawn	-6900
▁squeak	-6901
▁Stay	-6902
▁pennies	-6903
▁thoughts	-6904
▁respected	-6905
▁quarreling	-6906
▁Sofia	-6907
▁Flopsy	-6908
▁pigeons	-6909
▁twinkled	-6910
▁throughout	-6911
▁leapt	-6912
retty	-6913
TMd	-6914
▁occ	-6915
▁Tuna	-6916
▁Fiona	-6917
▁stacked	-6918
▁Katy	-6919
▁Fuzzy	-6920
▁dresser	-6921
▁Fe	-6922
Fo	-6923
rrr	-6924
▁fits	-6925
▁scient	-6926
but	-6927
▁coc	-6928
▁master	-6929
▁scientist	-6930
Bob	-6931
roken	-6932
▁Meanwhile	-6933
▁Eva	-6934
▁Ph	-6935
▁bravest	-6936
▁avocados	-6937
▁months	-6938
▁overcome	-6939
▁strongest	-6940
▁elf	-6941
ushed	-6942
▁polar	-6943
ears	-6944
▁playtime	-6945
▁san	-6946
Listen	-6947
▁gonna	-6948
▁notes	-6949
fire	-6950
▁nur	-6951
▁Take	-6952
▁Spl	-6953
▁certain	-6954
▁Im	-6955
▁manag	-6956
▁wept	-6957
oke	-6958
▁nood	-6959
▁munch	-6960
▁spins	-6961
▁colder	-6962
▁echoed	-6963
▁scored	-6964
▁Up	-6965
bage	-6966
▁cosy	-6967
▁convers	-6968
▁wakes	-6969
▁garbage	-6970
▁playroom	-6971
▁designs	-6972
▁performing	-6973
eezes	-6974
▁peck	-6975
Mine	-6976
▁prob	-6977
▁sank	-6978
▁flown	-6979
▁tricycle	-6980
▁Owl	-6981
▁sweetest	-6982
▁prove	-6983
▁probably	-6984
▁forgiving	-6985
▁marshmallows	-6986
ca	-6987
▁gest	-6988
▁behaving	-6989
rying	-6990
iment	-6991
▁Jonny	-6992
▁pumpkins	-6993
cher	-6994
▁guide	-6995
▁explorer	-6996
please	-6997
▁robots	-6998
▁squeezing	-6999
▁Fire	-7000
œIf	-7001
▁tossed	-7002
▁blinking	-7003
bbling	-7004
▁causing	-7005
hew	-7006
▁Jojo	-7007
..."	-7008
undred	-7009
Very	-7010
broken	-7011
▁bells	-7012
▁shown	-7013
▁cobwebs	-7014
œOkay	-7015
urprise	-7016
▁Despite	-7017
▁squishy	-7018
▁Mae	-7019
Like	-7020
▁haird	-7021
▁spices	-7022
▁passengers	-7023
▁craft	-7024
▁congratul	-7025
fus	-7026
▁ties	-7027
▁healing	-7028
▁tighter	-7029
▁mate	-7030
▁angels	-7031
?!"	-7032
▁yielded	-7033
▁Louise	-7034
ading	-7035
▁reversed	-7036
ilda	-7037
▁pound	-7038
▁sadd	-7039
▁Dani	-7040
▁Yesterday	-7041
▁aimed	-7042
▁Curious	-7043
▁napping	-7044
▁giggles	-7045
upt	-7046
▁Tam	-7047
▁pays	-7048
▁nearly	-7049
▁offic	-7050
▁Ally	-7051
▁2	-7052
▁unw	-7053
▁distract	-7054
▁Still	-7055
▁kittens	-7056
▁instruments	-7057
▁Birdy	-7058
▁wider	-7059
Follow	-7060
▁reun	-7061
mates	-7062
▁sewing	-7063
alloween	-7064
▁til	-7065
aying	-7066
▁nuzz	-7067
▁doorway	-7068
▁conflict	-7069
▁clues	-7070
▁Because	-7071
▁appreciated	-7072
▁inj	-7073
▁Maisy	-7074
▁paintbrush	-7075
▁brushing	-7076
found	-7077
▁coug	-7078
▁shoo	-7079
▁grandd	-7080
▁action	-7081
▁yum	-7082
Watch	-7083
▁Well	-7084
▁ease	-7085
▁loading	-7086
▁bru	-7087
▁passports	-7088
▁cottage	-7089
onies	-7090
Alright	-7091
▁paths	-7092
▁Halloween	-7093
Sue	-7094
▁heartbroken	-7095
▁Rocky	-7096
▁ais	-7097
▁merma	-7098
▁blocked	-7099
▁Pen	-7100
▁laying	-7101
▁slipping	-7102
ino	-7103
▁sweep	-7104
▁results	-7105
▁anger	-7106
▁repeating	-7107
▁pins	-7108
▁figures	-7109
▁bits	-7110
▁belts	-7111
▁evil	-7112
antastic	-7113
▁soaking	-7114
idey	-7115
▁Pippa	-7116
▁mailed	-7117
▁within	-7118
asty	-7119
▁Hope	-7120
▁Start	-7121
▁twisty	-7122
isc	-7123
▁Mother	-7124
▁Pippin	-7125
▁twisting	-7126
▁suffered	-7127
dding	-7128
▁tuck	-7129
▁connected	-7130
▁Becky	-7131
▁puzzled	-7132
€,	-7133
▁shovels	-7134
▁buses	-7135
▁damaged	-7136
▁accomplished	-7137
▁und	-7138
▁noodles	-7139
▁crossing	-7140
▁hundred	-7141
ighting	-7142
▁breathing	-7143
▁sever	-7144
▁licking	-7145
▁behavior	-7146
▁roars	-7147
▁several	-7148
▁shrug	-7149
▁tying	-7150
▁responsib	-7151
▁risks	-7152
▁surfing	-7153
▁surrendered	-7154
▁fleas	-7155
▁despite	-7156
▁bracelets	-7157
▁finishing	-7158
▁toward	-7159
œPlease	-7160
▁encount	-7161
▁Green	-7162
▁Spidey	-7163
▁lending	-7164
▁hairdress	-7165
▁streamers	-7166
▁defin	-7167
▁humming	-7168
▁Ga	-7169
byes	-7170
lves	-7171
▁Time	-7172
▁supported	-7173
▁Auntie	-7174
▁shady	-7175
▁oysters	-7176
▁awoke	-7177
▁cleaner	-7178
▁quieter	-7179
Vroom	-7180
▁luckily	-7181
▁whose	-7182
▁goodbyes	-7183
œOf	-7184
▁Eliz	-7185
▁ignoring	-7186
▁stitches	-7187
▁rainy	-7188
▁Kelly	-7189
▁rather	-7190
▁tablet	-7191
isions	-7192
▁ponies	-7193
Take	-7194
▁Flo	-7195
▁Wil	-7196
▁edges	-7197
▁Frankie	-7198
▁cuddles	-7199
erk	-7200
▁fantastic	-7201
unity	-7202
ecca	-7203
eling	-7204
▁cloudy	-7205
▁frowns	-7206
▁slither	-7207
▁Wally	-7208
Surprise	-7209
▁handing	-7210
ening	-7211
▁final	-7212
▁snowflakes	-7213
▁Kevin	-7214
▁Janey	-7215
ppies	-7216
▁sped	-7217
▁drown	-7218
▁elbow	-7219
▁hairdresser	-7220
▁cotton	-7221
▁thorns	-7222
▁definitely	-7223
▁coral	-7224
▁rains	-7225
▁Pretty	-7226
▁focus	-7227
▁gesture	-7228
▁Luc	-7229
▁surv	-7230
▁kings	-7231
▁smallest	-7232
▁battle	-7233
▁wisely	-7234
▁reminding	-7235
œNow	-7236
▁sy	-7237
crow	-7238
▁correctly	-7239
▁vines	-7240
▁driveway	-7241
▁decisions	-7242
▁sou	-7243
▁Any	-7244
athy	-7245
onnie	-7246
▁peeled	-7247
▁X	-7248
▁newfound	-7249
▁squeaked	-7250
whe	-7251
▁chopped	-7252
▁sharks	-7253
▁prick	-7254
▁student	-7255
▁snort	-7256
▁warri	-7257
▁grandson	-7258
▁Rain	-7259
▁symbols	-7260
▁weeds	-7261
▁simply	-7262
▁fishes	-7263
▁Froggy	-7264
rie	-7265
▁Ar	-7266
cent	-7267
▁bandages	-7268
▁granddaughter	-7269
▁wobble	-7270
onse	-7271
▁response	-7272
▁nasty	-7273
▁except	-7274
▁exercises	-7275
we	-7276
steps	-7277
▁Daniel	-7278
▁stopping	-7279
▁Pepper	-7280
▁tar	-7281
▁occas	-7282
elie	-7283
▁afar	-7284
▁banged	-7285
▁ni	-7286
▁darl	-7287
▁darlings	-7288
▁inspired	-7289
father	-7290
▁travels	-7291
▁tipped	-7292
▁disturbing	-7293
▁fills	-7294
▁masterp	-7295
▁lent	-7296
▁flipped	-7297
œHey	-7298
▁footsteps	-7299
▁Jax	-7300
worm	-7301
▁pedaled	-7302
line	-7303
▁birdhouse	-7304
▁purr	-7305
▁spits	-7306
▁windowsill	-7307
▁travelling	-7308
▁ships	-7309
▁Welcome	-7310
▁convin	-7311
▁presented	-7312
aa	-7313
▁Stan	-7314
▁scarecrow	-7315
sol	-7316
▁address	-7317
▁punishment	-7318
▁planting	-7319
▁apologised	-7320
▁Ana	-7321
mered	-7322
▁Dory	-7323
▁Joan	-7324
▁antic	-7325
▁Excitedly	-7326
ddie	-7327
▁chocolates	-7328
▁forests	-7329
▁Bounce	-7330
▁surfboard	-7331
Cl	-7332
ms	-7333
▁congratulated	-7334
▁Elle	-7335
▁arranged	-7336
▁believing	-7337
▁reassured	-7338
▁trotted	-7339
▁Phil	-7340
▁Roger	-7341
▁reunited	-7342
▁Gus	-7343
▁nodding	-7344
▁encouragement	-7345
▁Pu	-7346
▁cheers	-7347
▁lies	-7348
▁images	-7349
▁Feeling	-7350
▁poppies	-7351
▁reapp	-7352
▁campfire	-7353
▁suits	-7354
▁business	-7355
▁clerk	-7356
▁Splash	-7357
▁target	-7358
ooky	-7359
▁marve	-7360
▁sails	-7361
▁magnif	-7362
perate	-7363
issa	-7364
▁officers	-7365
manda	-7366
▁backpacks	-7367
▁terrified	-7368
▁grip	-7369
▁Patty	-7370
▁covering	-7371
▁yel	-7372
utter	-7373
▁knots	-7374
▁activity	-7375
▁Bow	-7376
inkle	-7377
▁Nancy	-7378
▁yelped	-7379
▁wrinkled	-7380
▁surprising	-7381
▁expert	-7382
▁smelling	-7383
▁Other	-7384
Beep	-7385
▁mood	-7386
▁masterpiece	-7387
▁dep	-7388
▁Fighting	-7389
otte	-7390
▁Snowman	-7391
▁Amanda	-7392
▁changes	-7393
▁concert	-7394
Quick	-7395
▁chilly	-7396
▁spills	-7397
▁speeding	-7398
▁testing	-7399
▁Bri	-7400
▁tasting	-7401
▁braver	-7402
▁pleaded	-7403
▁sniffing	-7404
▁Okay	-7405
▁delayed	-7406
▁comforting	-7407
▁gears	-7408
▁calmly	-7409
▁Startled	-7410
ats	-7411
acle	-7412
▁Elly	-7413
asha	-7414
acles	-7415
▁labels	-7416
▁Dog	-7417
▁Duck	-7418
ider	-7419
▁mermaid	-7420
▁suggestion	-7421
▁aware	-7422
▁discussing	-7423
▁stumble	-7424
▁Try	-7425
▁Jean	-7426
▁spies	-7427
▁mischie	-7428
▁Quackers	-7429
▁belongings	-7430
▁jars	-7431
▁worrying	-7432
▁bothering	-7433
▁magazines	-7434
flies	-7435
▁artwork	-7436
▁although	-7437
▁displayed	-7438
▁mischievous	-7439
▁understands	-7440
ails	-7441
▁crowns	-7442
▁Charlotte	-7443
▁puck	-7444
▁efforts	-7445
▁admiration	-7446
▁burying	-7447
screen	-7448
▁foxes	-7449
▁height	-7450
emma	-7451
▁hoo	-7452
▁unfortunately	-7453
pen	-7454
▁sav	-7455
Little	-7456
▁refuse	-7457
▁seller	-7458
▁toolbox	-7459
rier	-7460
▁baskets	-7461
ighing	-7462
▁Helen	-7463
▁buddy	-7464
▁Outside	-7465
▁bitten	-7466
▁Spe	-7467
▁experienced	-7468
▁decl	-7469
▁que	-7470
inted	-7471
▁bless	-7472
vroom	-7473
▁dragonfly	-7474
▁vehicles	-7475
wise	-7476
bell	-7477
▁packages	-7478
what	-7479
▁disc	-7480
▁solving	-7481
▁dump	-7482
▁Ty	-7483
ibbit	-7484
ugging	-7485
▁pandas	-7486
œA	-7487
▁annoyed	-7488
ipes	-7489
mbers	-7490
▁momma	-7491
aturday	-7492
▁members	-7493
▁tumbled	-7494
▁Eddie	-7495
▁seashells	-7496
▁Snowball	-7497
œThe	-7498
▁fires	-7499
▁warmly	-7500
▁Saturday	-7501
▁posit	-7502
▁wealth	-7503
▁nibbled	-7504
▁Lina	-7505
▁sunscreen	-7506
▁Eric	-7507
aint	-7508
▁treated	-7509
▁troubles	-7510
▁peas	-7511
▁squaw	-7512
▁rotting	-7513
▁Elsa	-7514
▁scent	-7515
▁material	-7516
▁Annab	-7517
œSure	-7518
▁Fort	-7519
▁conqu	-7520
▁stomp	-7521
▁gazing	-7522
▁coach	-7523
▁insisting	-7524
▁untied	-7525
▁diso	-7526
▁prayers	-7527
▁environ	-7528
▁parted	-7529
▁conversation	-7530
▁Tammy	-7531
▁Sasha	-7532
▁collap	-7533
▁Rudy	-7534
▁encountered	-7535
▁joins	-7536
▁loops	-7537
▁races	-7538
▁sewed	-7539
aver	-7540
▁sill	-7541
▁teachers	-7542
▁environment	-7543
▁scurrying	-7544
owing	-7545
attered	-7546
▁whispering	-7547
▁argum	-7548
▁joked	-7549
▁tilted	-7550
▁purpose	-7551
▁Ava	-7552
▁orders	-7553
▁stored	-7554
▁loses	-7555
Dear	-7556
▁exch	-7557
▁hoops	-7558
▁genie	-7559
▁cowboy	-7560
▁Fortunately	-7561
ppa	-7562
▁tweet	-7563
▁sheets	-7564
▁spooky	-7565
order	-7566
▁toss	-7567
▁permitted	-7568
airy	-7569
Get	-7570
▁Terry	-7571
Goodnight	-7572
ongo	-7573
▁aim	-7574
▁Se	-7575
▁diamonds	-7576
▁type	-7577
iscuit	-7578
▁scram	-7579
▁pupils	-7580
▁anticip	-7581
▁glittering	-7582
▁trans	-7583
▁queens	-7584
illiam	-7585
▁beaming	-7586
▁nearest	-7587
▁ends	-7588
▁tubes	-7589
▁turtles	-7590
▁maker	-7591
▁servant	-7592
œSee	-7593
▁Ly	-7594
▁Sw	-7595
▁Jason	-7596
▁films	-7597
▁donkey	-7598
▁visitors	-7599
▁opport	-7600
▁spells	-7601
▁gap	-7602
igger	-7603
▁untie	-7604
▁Stitch	-7605
▁Woo	-7606
▁fins	-7607
▁stroke	-7608
▁cleared	-7609
▁rin	-7610
▁oppos	-7611
▁tapping	-7612
▁Min	-7613
▁nurses	-7614
▁wasting	-7615
▁customers	-7616
usty	-7617
▁priz	-7618
▁swo	-7619
▁shall	-7620
▁hunters	-7621
▁ger	-7622
▁convinced	-7623
▁Grand	-7624
▁wounds	-7625
▁swollen	-7626
aven	-7627
▁Hold	-7628
▁Seeing	-7629
▁goats	-7630
▁Speedy	-7631
▁sweaty	-7632
Every	-7633
▁Izzy	-7634
▁Poor	-7635
▁slowed	-7636
▁William	-7637
▁Bobbie	-7638
▁declared	-7639
▁dressing	-7640
▁dot	-7641
▁examining	-7642
elope	-7643
orter	-7644
▁Sk	-7645
▁opposite	-7646
Jim	-7647
▁Ricky	-7648
▁characters	-7649
ilities	-7650
▁failed	-7651
▁Nana	-7652
▁Elsie	-7653
▁tidied	-7654
▁transf	-7655
▁grandfather	-7656
▁warrior	-7657
▁Finny	-7658
▁forgiveness	-7659
▁sternly	-7660
▁goodies	-7661
▁guessing	-7662
▁lipstick	-7663
Leave	-7664
▁peep	-7665
▁youngest	-7666
▁scratching	-7667
▁seagulls	-7668
mies	-7669
rest	-7670
▁inchworm	-7671
▁beeped	-7672
empt	-7673
▁Lion	-7674
▁meowing	-7675
▁rescuing	-7676
▁thanking	-7677
▁questioned	-7678
▁Spring	-7679
▁attempt	-7680
▁scrambled	-7681
▁La	-7682
▁Youâ	-7683
▁grat	-7684
▁dripping	-7685
Wh	-7686
ouqu	-7687
▁bouqu	-7688
▁tires	-7689
▁active	-7690
▁Oliv	-7691
▁form	-7692
▁Bongo	-7693
▁stall	-7694
▁anticipation	-7695
rily	-7696
▁nibble	-7697
▁picnics	-7698
acy	-7699
▁aisle	-7700
▁blond	-7701
▁floors	-7702
▁responded	-7703
▁responsibility	-7704
▁shin	-7705
▁matey	-7706
▁smashed	-7707
▁attacked	-7708
▁force	-7709
▁explains	-7710
▁emerged	-7711
▁knocking	-7712
▁obeyed	-7713
▁inter	-7714
▁Taking	-7715
▁gratitude	-7716
▁discoveries	-7717
▁jud	-7718
▁ting	-7719
▁vibr	-7720
cie	-7721
▁rely	-7722
Stay	-7723
▁rays	-7724
▁zooms	-7725
▁decoration	-7726
▁charge	-7727
▁manners	-7728
▁classmates	-7729
▁Tessa	-7730
▁Amber	-7731
▁sprout	-7732
▁sens	-7733
▁snug	-7734
▁Brian	-7735
▁visits	-7736
▁signing	-7737
▁Reb	-7738
▁Peppa	-7739
œWho	-7740
▁spy	-7741
▁aeroplanes	-7742
▁soot	-7743
▁girlâ	-7744
▁twists	-7745
▁survive	-7746
▁vegg	-7747
▁instantly	-7748
anda	-7749
munk	-7750
Always	-7751
Fl	-7752
So	-7753
▁Win	-7754
▁loc	-7755
▁wiggly	-7756
▁Beh	-7757
▁self	-7758
ippers	-7759
▁breaths	-7760
▁unwra	-7761
roll	-7762
▁ramp	-7763
▁seals	-7764
▁rumbling	-7765
▁Rebecca	-7766
sm	-7767
act	-7768
▁Gary	-7769
▁buckled	-7770
ana	-7771
▁brightest	-7772
▁Penelope	-7773
▁shrunk	-7774
yl	-7775
▁beeh	-7776
▁bond	-7777
▁munched	-7778
▁Matilda	-7779
▁increasing	-7780
▁hen	-7781
athan	-7782
▁purrs	-7783
▁manager	-7784
▁shimmering	-7785
idence	-7786
▁flaps	-7787
▁earned	-7788
▁doorbell	-7789
▁chatter	-7790
gain	-7791
ooking	-7792
▁Olivia	-7793
ching	-7794
udged	-7795
▁lowered	-7796
▁swaying	-7797
▁movements	-7798
iens	-7799
▁Crabby	-7800
ittered	-7801
▁aliens	-7802
▁cracks	-7803
▁honking	-7804
All	-7805
▁Ant	-7806
▁Zoomy	-7807
▁argument	-7808
ssss	-7809
▁Chick	-7810
▁disobey	-7811
▁chipmunk	-7812
▁whoever	-7813
▁winding	-7814
romise	-7815
▁Fel	-7816
inger	-7817
ummies	-7818
▁announced	-7819
▁prevented	-7820
its	-7821
œGood	-7822
▁beaver	-7823
▁rowed	-7824
▁Sparkle	-7825
TMve	-7826
▁bathing	-7827
▁switched	-7828
lied	-7829
▁amu	-7830
▁mosquitoes	-7831
▁taped	-7832
storm	-7833
▁Step	-7834
oscope	-7835
▁poses	-7836
▁offering	-7837
▁swap	-7838
▁nuzzled	-7839
aby	-7840
▁cons	-7841
▁prickly	-7842
aret	-7843
flowers	-7844
▁Ashley	-7845
▁Shelly	-7846
▁swayed	-7847
▁flips	-7848
▁steth	-7849
uel	-7850
▁destroying	-7851
▁lapt	-7852
▁Robo	-7853
▁minds	-7854
▁	-7855
e	-7856
a	-7857
t	-7858
o	-7859
h	-7860
n	-7861
i	-7862
d	-7863
s	-7864
r	-7865
l	-7866
y	-7867
m	-7868
w	-7869
.	-7870
u	-7871
g	-7872
c	-7873
p	-7874
f	-7875
b	-7876
k	-7877
,	-7878
T	-7879
v	-7880
"	-7881
S	-7882
H	-7883
'	-7884
I	-7885
L	-7886
O	-7887
!	-7888
B	-7889
M	-7890
x	-7891
A	-7892
W	-7893
j	-7894
J	-7895
?	-7896
Y	-7897
z	-7898
D	-7899
â	-7900
€	-7901
E	-7902
F	-7903
q	-7904
C	-7905
N	-7906
G	-7907
P	-7908
-	-7909
œ	-7910
R	-7911
K	-7912
:	-7913
3	-7914
V	-7915
Z	-7916
U	-7917
;	-7918
Q	-7919
“	-7920
1	-7921
”	-7922
0	-7923
̃	-7924
2	-7925
X	-7926
5	-7927
4	-7928
¦	-7929
Ã	-7930
9	-7931
/	-7932
`	-7933
©	-7934
8	-7935
6	-7936
7	-7937
)	-7938
Â	-7939
(	-7940
$	-7941
*	-7942
_	-7943
­	-7944
\	-7945
́	-7946
&	-7947
+	-7948
±	-7949
‹	-7950
=	-7951
¢	-7952
Š	-7953
‚	-7954
<	-7955
>	-7956
]	-7957
[	-7958
¬	-7959
#	-7960
‰	-7961
¿	-7962
%	-7963
å	-7964
ï	-7965
ç	-7966
Ä	-7967
¡	-7968
„	-7969
»	-7970
⁄	-7971
á	-7972
Ž	-7973
̈	-7974
~	-7975
ˆ	-7976
ä	-7977
è	-7978
’	-7979
Å	-7980
æ	-7981
Œ	-7982
ð	-7983
Ÿ	-7984
£	-7985
̄	-7986
•	-7987
«	-7988
ž	-7989
‡	-7990
§	-7991
ã	-7992
–	-7993
¥	-7994
°	-7995
·	-7996
